const unsigned char model_tflite[] = {
  0x20, 0x00, 0x00, 0x00, 0x54, 0x46, 0x4C, 0x33, 0x00, 0x00,
  0x00, 0x00, 0x14, 0x00, 0x20, 0x00, 0x1C, 0x00, 0x18, 0x00,
  0x14, 0x00, 0x10, 0x00, 0x0C, 0x00, 0x00, 0x00, 0x08, 0x00,
  0x04, 0x00, 0x14, 0x00, 0x00, 0x00, 0x1C, 0x00, 0x00, 0x00,
  0x94, 0x00, 0x00, 0x00, 0xEC, 0x00, 0x00, 0x00, 0x74, 0x1D,
  0x00, 0x00, 0x84, 0x1D, 0x00, 0x00, 0x84, 0x25, 0x00, 0x00,
  0x03, 0x00, 0x00, 0x00, 0x01, 0x00, 0x00, 0x00, 0x10, 0x00,
  0x00, 0x00, 0x00, 0x00, 0x0A, 0x00, 0x10, 0x00, 0x0C, 0x00,
  0x08, 0x00, 0x04, 0x00, 0x0A, 0x00, 0x00, 0x00, 0x0C, 0x00,
  0x00, 0x00, 0x1C, 0x00, 0x00, 0x00, 0x40, 0x00, 0x00, 0x00,
  0x0F, 0x00, 0x00, 0x00, 0x73, 0x65, 0x72, 0x76, 0x69, 0x6E,
  0x67, 0x5F, 0x64, 0x65, 0x66, 0x61, 0x75, 0x6C, 0x74, 0x00,
  0x01, 0x00, 0x00, 0x00, 0x04, 0x00, 0x00, 0x00, 0x94, 0xFF,
  0xFF, 0xFF, 0x0A, 0x00, 0x00, 0x00, 0x04, 0x00, 0x00, 0x00,
  0x0D, 0x00, 0x00, 0x00, 0x71, 0x75, 0x61, 0x6E, 0x74, 0x5F,
  0x64, 0x65, 0x6E, 0x73, 0x65, 0x5F, 0x31, 0x00, 0x00, 0x00,
  0x01, 0x00, 0x00, 0x00, 0x04, 0x00, 0x00, 0x00, 0x82, 0xE2,
  0xFF, 0xFF, 0x04, 0x00, 0x00, 0x00, 0x07, 0x00, 0x00, 0x00,
  0x69, 0x6E, 0x70, 0x75, 0x74, 0x5F, 0x31, 0x00, 0x02, 0x00,
  0x00, 0x00, 0x34, 0x00, 0x00, 0x00, 0x04, 0x00, 0x00, 0x00,
  0xDC, 0xFF, 0xFF, 0xFF, 0x0D, 0x00, 0x00, 0x00, 0x04, 0x00,
  0x00, 0x00, 0x13, 0x00, 0x00, 0x00, 0x43, 0x4F, 0x4E, 0x56,
  0x45, 0x52, 0x53, 0x49, 0x4F, 0x4E, 0x5F, 0x4D, 0x45, 0x54,
  0x41, 0x44, 0x41, 0x54, 0x41, 0x00, 0x08, 0x00, 0x0C, 0x00,
  0x08, 0x00, 0x04, 0x00, 0x08, 0x00, 0x00, 0x00, 0x0C, 0x00,
  0x00, 0x00, 0x04, 0x00, 0x00, 0x00, 0x13, 0x00, 0x00, 0x00,
  0x6D, 0x69, 0x6E, 0x5F, 0x72, 0x75, 0x6E, 0x74, 0x69, 0x6D,
  0x65, 0x5F, 0x76, 0x65, 0x72, 0x73, 0x69, 0x6F, 0x6E, 0x00,
  0x0E, 0x00, 0x00, 0x00, 0x84, 0x1C, 0x00, 0x00, 0x7C, 0x1C,
  0x00, 0x00, 0x38, 0x1C, 0x00, 0x00, 0xE8, 0x18, 0x00, 0x00,
  0x98, 0x18, 0x00, 0x00, 0x48, 0x18, 0x00, 0x00, 0xB8, 0x00,
  0x00, 0x00, 0xB0, 0x00, 0x00, 0x00, 0xA8, 0x00, 0x00, 0x00,
  0xA0, 0x00, 0x00, 0x00, 0x98, 0x00, 0x00, 0x00, 0x90, 0x00,
  0x00, 0x00, 0x70, 0x00, 0x00, 0x00, 0x04, 0x00, 0x00, 0x00,
  0x2E, 0xE3, 0xFF, 0xFF, 0x04, 0x00, 0x00, 0x00, 0x5C, 0x00,
  0x00, 0x00, 0x0C, 0x00, 0x00, 0x00, 0x08, 0x00, 0x0E, 0x00,
  0x08, 0x00, 0x04, 0x00, 0x08, 0x00, 0x00, 0x00, 0x10, 0x00,
  0x00, 0x00, 0x2C, 0x00, 0x00, 0x00, 0x00, 0x00, 0x06, 0x00,
  0x08, 0x00, 0x04, 0x00, 0x06, 0x00, 0x00, 0x00, 0x04, 0x00,
  0x00, 0x00, 0x02, 0x00, 0x00, 0x00, 0xEB, 0x03, 0x00, 0x00,
  0xD0, 0x07, 0x00, 0x00, 0x00, 0x00, 0x0A, 0x00, 0x10, 0x00,
  0x0C, 0x00, 0x08, 0x00, 0x04, 0x00, 0x0A, 0x00, 0x00, 0x00,
  0x02, 0x00, 0x00, 0x00, 0x02, 0x00, 0x00, 0x00, 0x04, 0x00,
  0x00, 0x00, 0x06, 0x00, 0x00, 0x00, 0x32, 0x2E, 0x31, 0x34,
  0x2E, 0x31, 0x00, 0x00, 0x96, 0xE3, 0xFF, 0xFF, 0x04, 0x00,
  0x00, 0x00, 0x10, 0x00, 0x00, 0x00, 0x31, 0x2E, 0x31, 0x34,
  0x2E, 0x30, 0x00, 0x00, 0x00, 0x00, 0x00, 0x00, 0x00, 0x00,
  0x00, 0x00, 0xC4, 0xE2, 0xFF, 0xFF, 0xC8, 0xE2, 0xFF, 0xFF,
  0xCC, 0xE2, 0xFF, 0xFF, 0xD0, 0xE2, 0xFF, 0xFF, 0xD4, 0xE2,
  0xFF, 0xFF, 0xC6, 0xE3, 0xFF, 0xFF, 0x04, 0x00, 0x00, 0x00,
  0x80, 0x17, 0x00, 0x00, 0xF3, 0x04, 0xF5, 0x02, 0x01, 0x07,
  0x00, 0x03, 0x03, 0x03, 0x16, 0x05, 0x33, 0x46, 0x01, 0xFC,
  0x0E, 0xFC, 0xF2, 0xEF, 0x08, 0x04, 0x01, 0x04, 0x00, 0xF3,
  0xF5, 0x01, 0xFC, 0x05, 0x21, 0xFE, 0x0E, 0x00, 0xFC, 0xFE,
  0x20, 0x0B, 0x0F, 0xFC, 0x09, 0x1C, 0xF7, 0x00, 0xF8, 0x0E,
  0x03, 0x02, 0x06, 0x01, 0xF8, 0x18, 0xF2, 0xFC, 0xF6, 0xE1,
  0xF6, 0xFD, 0x01, 0x01, 0x06, 0xFF, 0x04, 0x03, 0x04, 0x02,
  0x08, 0x01, 0x05, 0xFC, 0xFC, 0xFF, 0xEE, 0x06, 0xFC, 0xF6,
  0x00, 0xEE, 0xC5, 0xEB, 0x0D, 0x01, 0x12, 0xEE, 0x08, 0xFB,
  0x09, 0xEB, 0x00, 0x01, 0x00, 0x00, 0xFD, 0x1D, 0xF7, 0xD4,
  0xFF, 0x07, 0x0A, 0x00, 0x0B, 0xFD, 0xFD, 0xFD, 0xC6, 0x10,
  0x0B, 0x0C, 0x10, 0x13, 0x1E, 0x2A, 0xF0, 0xFD, 0x00, 0x0A,
  0x09, 0xF7, 0x00, 0x00, 0x00, 0xFD, 0x07, 0x09, 0xFF, 0xFB,
  0x04, 0x01, 0x07, 0xFA, 0x0A, 0xEC, 0x19, 0x08, 0xFD, 0x05,
  0x09, 0xEF, 0xFE, 0xFC, 0xFB, 0x19, 0xF0, 0x07, 0x09, 0xF5,
  0x07, 0xF9, 0xFF, 0xFA, 0x08, 0x00, 0xFA, 0xFD, 0x05, 0xFF,
  0x01, 0xFD, 0xFA, 0xFC, 0xFF, 0xFF, 0xF4, 0xF1, 0x06, 0xF7,
  0x00, 0xF3, 0xF8, 0xFB, 0xF4, 0xFC, 0xF5, 0xEE, 0xFA, 0x21,
  0xEF, 0xF0, 0x05, 0xFF, 0xFF, 0xEA, 0xFF, 0x02, 0x04, 0x00,
  0x0B, 0xF9, 0x14, 0x06, 0x0D, 0x00, 0xFA, 0x01, 0xF9, 0xFF,
  0x02, 0x02, 0xFA, 0xF2, 0xF3, 0x18, 0xFA, 0xEB, 0xFF, 0xED,
  0x0C, 0x02, 0x0C, 0xFD, 0xFE, 0x03, 0x00, 0xF2, 0xEE, 0xB2,
  0xEA, 0xF7, 0x05, 0xEE, 0xED, 0x04, 0x03, 0xE9, 0x20, 0xF4,
  0xFA, 0xFD, 0x07, 0x0A, 0x05, 0xF7, 0x0C, 0xFB, 0x06, 0x05,
  0xF3, 0xFC, 0xF0, 0xF6, 0xFE, 0xF8, 0x0E, 0xF2, 0xFD, 0xFF,
  0x08, 0x07, 0x10, 0x02, 0x00, 0x05, 0x00, 0x05, 0x05, 0xFC,
  0x05, 0x02, 0xFA, 0x0C, 0x0A, 0xFF, 0xF7, 0x0D, 0xFA, 0xF8,
  0xAF, 0x0B, 0x02, 0xC5, 0x28, 0x10, 0x16, 0x00, 0xD8, 0x05,
  0x00, 0x04, 0xF5, 0x00, 0x00, 0x13, 0x01, 0xE6, 0xFC, 0x02,
  0xFE, 0x06, 0xFD, 0xFE, 0xFE, 0xFE, 0x17, 0x03, 0x03, 0x0A,
  0x00, 0xEF, 0x07, 0x00, 0x0D, 0xBF, 0x02, 0xFF, 0xFF, 0x08,
  0x00, 0xFE, 0xFC, 0x08, 0x08, 0x05, 0xDD, 0x19, 0xF7, 0xEC,
  0xFC, 0x08, 0xD8, 0xEF, 0xFF, 0xFB, 0xF2, 0x19, 0xF2, 0x01,
  0xFB, 0xFF, 0x0A, 0xD4, 0xFE, 0xFB, 0x0E, 0x02, 0x04, 0xFF,
  0xFC, 0x08, 0xF9, 0x03, 0xFB, 0xFB, 0x08, 0xFF, 0x0A, 0x00,
  0xFF, 0xFF, 0x10, 0xFD, 0x08, 0x00, 0x05, 0x03, 0x1A, 0x04,
  0x02, 0xFA, 0x01, 0xFB, 0xE9, 0x07, 0x03, 0x1A, 0xF6, 0xF3,
  0xDE, 0x00, 0x1E, 0x03, 0xFE, 0x06, 0xFF, 0xFF, 0xF1, 0x14,
  0x04, 0x08, 0xF9, 0xFA, 0xFE, 0xF1, 0xF6, 0x0A, 0x08, 0x0B,
  0x1C, 0xFA, 0xD7, 0x18, 0x04, 0xF8, 0x14, 0xFB, 0xFB, 0x19,
  0x0F, 0x04, 0x0A, 0x0C, 0x00, 0xFD, 0xFC, 0xD7, 0x24, 0x05,
  0xFD, 0x0B, 0xF1, 0x20, 0x0A, 0xC8, 0x04, 0xF7, 0x0B, 0x06,
  0xDA, 0x03, 0x01, 0x02, 0xFD, 0x02, 0xFF, 0xE1, 0xE5, 0xFD,
  0xF3, 0xFA, 0xEC, 0x00, 0x00, 0xF9, 0xFC, 0xF9, 0x02, 0x04,
  0x04, 0x0B, 0x01, 0x08, 0x08, 0x0C, 0x02, 0x01, 0x00, 0xFC,
  0xF3, 0xF5, 0xF3, 0x13, 0x05, 0x00, 0x09, 0xF2, 0xE4, 0xE7,
  0x0F, 0xEB, 0x2D, 0xE9, 0xFD, 0x00, 0xFB, 0x0C, 0x01, 0x02,
  0x00, 0x00, 0x00, 0xFF, 0xEF, 0xEB, 0x03, 0x09, 0x0B, 0x08,
  0x14, 0x03, 0x03, 0x02, 0x4C, 0x0E, 0xFA, 0x1D, 0x08, 0xE2,
  0xFE, 0x1E, 0xE9, 0x1A, 0x04, 0x04, 0x05, 0xFD, 0x00, 0x07,
  0x09, 0xF3, 0xF1, 0x0F, 0xF5, 0xFC, 0xE6, 0x16, 0x0A, 0xD4,
  0xC0, 0x12, 0x33, 0x08, 0x1B, 0x06, 0xF9, 0xF7, 0x09, 0x1F,
  0xFA, 0x00, 0xEA, 0x13, 0x13, 0x05, 0xDA, 0xFC, 0x04, 0xF8,
  0x05, 0x09, 0x03, 0x01, 0x08, 0xF8, 0x09, 0xFE, 0x02, 0xFF,
  0x2F, 0x05, 0xFC, 0xFF, 0xFE, 0xFA, 0xE8, 0x0A, 0x00, 0x02,
  0x04, 0xE0, 0xF5, 0xE5, 0xFE, 0x1C, 0xF1, 0xFC, 0xF6, 0xEC,
  0x32, 0x0F, 0x01, 0x02, 0xF4, 0x00, 0x00, 0xF5, 0x08, 0xF0,
  0xFE, 0x00, 0xFF, 0xFB, 0xFC, 0xFB, 0x00, 0x01, 0x1A, 0xFF,
  0xE8, 0x07, 0x00, 0xE9, 0xF5, 0x31, 0x25, 0x10, 0x01, 0x01,
  0x01, 0xFA, 0x00, 0x00, 0xFD, 0x0F, 0xF6, 0x01, 0xFC, 0xED,
  0xFA, 0xF8, 0xFD, 0xEA, 0x01, 0xFF, 0xF3, 0xFD, 0x19, 0x01,
  0xFA, 0xFE, 0xFE, 0x05, 0x19, 0xFA, 0xFB, 0xFF, 0x01, 0x02,
  0xEF, 0xF6, 0xFE, 0xF2, 0xFB, 0x06, 0x01, 0xFF, 0x04, 0xFF,
  0x08, 0x02, 0x02, 0x02, 0x08, 0xF0, 0xE6, 0x01, 0x05, 0xEB,
  0x11, 0xFD, 0xFA, 0xFC, 0xF8, 0x01, 0xFA, 0xE9, 0x03, 0xFC,
  0x12, 0xF9, 0x1A, 0x01, 0xDE, 0x12, 0x06, 0xFE, 0xF3, 0x00,
  0x00, 0xFE, 0x07, 0x10, 0xEF, 0xFC, 0x05, 0xFF, 0xFB, 0x09,
  0x09, 0x09, 0xFE, 0x02, 0x14, 0xFD, 0x0E, 0x15, 0x11, 0xB3,
  0x03, 0xFF, 0x0D, 0xFC, 0x0E, 0xFF, 0x00, 0x11, 0xF7, 0x20,
  0x1B, 0x00, 0x20, 0xF9, 0xFE, 0x04, 0x03, 0xFC, 0xFD, 0x13,
  0x0D, 0x00, 0xFA, 0x04, 0xFD, 0xFD, 0xEA, 0xF4, 0xF5, 0xF9,
  0x03, 0xE4, 0x07, 0x03, 0xF8, 0x05, 0xEE, 0xFB, 0x01, 0x00,
  0x02, 0x00, 0x10, 0x01, 0x07, 0x08, 0x0D, 0x09, 0xF9, 0xF8,
  0x0D, 0xEE, 0xF4, 0xFE, 0xF2, 0x15, 0x05, 0xF6, 0x05, 0xFC,
  0xFB, 0x07, 0x08, 0x01, 0x0D, 0xF2, 0xE9, 0x0E, 0xFF, 0x26,
  0xFD, 0x19, 0x00, 0x00, 0x01, 0xD1, 0x02, 0x00, 0x01, 0xF9,
  0xF6, 0x05, 0xF8, 0x02, 0x00, 0x00, 0x1B, 0xF4, 0xD7, 0x1D,
  0xF4, 0x01, 0x05, 0xFD, 0xD9, 0xDA, 0xFB, 0x06, 0xF5, 0x00,
  0x00, 0xFD, 0xFF, 0xF1, 0xFF, 0x15, 0x0C, 0x19, 0xE0, 0x0A,
  0xF5, 0xFD, 0x1D, 0x2A, 0x1C, 0xFA, 0xF3, 0x09, 0x0C, 0xFF,
  0x04, 0xFE, 0xEB, 0xF4, 0x09, 0x08, 0xF1, 0x05, 0xF2, 0x08,
  0xF5, 0x02, 0x0A, 0x03, 0xFC, 0xFD, 0x04, 0xFF, 0x10, 0xFA,
  0x04, 0xF9, 0x16, 0xF0, 0x00, 0xF2, 0xFD, 0x03, 0xF0, 0xF8,
  0x03, 0xEB, 0x09, 0xFE, 0x2A, 0xFC, 0xED, 0x0A, 0xE0, 0x13,
  0x01, 0xF2, 0x29, 0xD6, 0xFD, 0xF1, 0x01, 0x00, 0x03, 0x18,
  0x1C, 0x07, 0x03, 0x08, 0xFA, 0x04, 0xF8, 0x0A, 0x09, 0x0A,
  0xD2, 0x0B, 0x10, 0x03, 0xFC, 0xE6, 0x07, 0x01, 0x31, 0x0E,
  0x0E, 0xFE, 0x02, 0x18, 0x00, 0xFD, 0xFF, 0x0A, 0xF8, 0x07,
  0x0A, 0x01, 0xF5, 0x02, 0xFC, 0xF9, 0xFE, 0xD6, 0xF6, 0xFC,
  0xD5, 0x1B, 0x01, 0xFF, 0x0D, 0x17, 0xF9, 0xF2, 0x10, 0x0F,
  0x0F, 0x0B, 0xF5, 0xFB, 0x06, 0xD6, 0xEC, 0x14, 0x0C, 0x0C,
  0x04, 0x02, 0x09, 0xFA, 0x09, 0xFB, 0xF7, 0x00, 0xF9, 0x05,
  0x03, 0x01, 0x09, 0xF0, 0xFE, 0x05, 0xFA, 0xFE, 0xE1, 0x13,
  0xDD, 0xF6, 0xF5, 0x16, 0x0D, 0x00, 0x17, 0x00, 0x00, 0xE9,
  0xEE, 0x00, 0xEA, 0x27, 0xA9, 0xF8, 0xF1, 0x05, 0x05, 0x06,
  0xF5, 0xFA, 0xFA, 0xFC, 0xFE, 0x00, 0xE1, 0x08, 0x01, 0x20,
  0x26, 0x1E, 0x11, 0xDA, 0x1D, 0x06, 0x0A, 0xFB, 0x00, 0xFE,
  0xFF, 0xDA, 0x22, 0x01, 0xF0, 0x10, 0x03, 0x02, 0xFF, 0xEE,
  0x03, 0xCF, 0xE2, 0xFC, 0x03, 0x1B, 0x0C, 0xF7, 0xF0, 0x02,
  0x06, 0x01, 0x09, 0xF8, 0xF5, 0xF3, 0xFD, 0xF7, 0xF2, 0x0B,
  0xF3, 0xFF, 0x09, 0xFC, 0x14, 0xF5, 0x00, 0xFF, 0x13, 0xFF,
  0xFC, 0xFF, 0x10, 0xE4, 0xF7, 0x08, 0xF4, 0x06, 0xF6, 0xF4,
  0xFC, 0xF2, 0xB4, 0xFB, 0x0C, 0xD7, 0x16, 0xFB, 0xD0, 0x00,
  0x23, 0x1E, 0x00, 0x00, 0xF6, 0x00, 0xFF, 0xF9, 0x00, 0x0D,
  0x00, 0xFC, 0x01, 0x01, 0x06, 0x0C, 0x05, 0x05, 0xF5, 0xF9,
  0xF2, 0xD1, 0xFB, 0x1F, 0xF5, 0xFC, 0x0F, 0x07, 0xF9, 0x11,
  0xF2, 0x0B, 0x00, 0xF8, 0x08, 0x41, 0x00, 0xF8, 0x08, 0x01,
  0x0D, 0x16, 0xFC, 0xD0, 0x39, 0xB1, 0x26, 0xFB, 0x27, 0xE6,
  0xDA, 0x02, 0xFF, 0xF6, 0x09, 0x18, 0x0E, 0x05, 0x01, 0xF7,
  0x06, 0x02, 0x00, 0xE9, 0x07, 0x04, 0x0B, 0x0F, 0xEA, 0x0B,
  0xE8, 0xFC, 0x00, 0xFB, 0x07, 0xFE, 0xF9, 0x07, 0x09, 0xFD,
  0xFC, 0xF8, 0x05, 0xFF, 0x01, 0xFE, 0x63, 0xFA, 0x0C, 0x03,
  0xEF, 0x11, 0x1F, 0x00, 0x15, 0xDD, 0x01, 0xF0, 0x01, 0x00,
  0x06, 0xFA, 0xD7, 0xD4, 0xF9, 0xF6, 0x07, 0xF5, 0x0F, 0xFE,
  0xFE, 0xFD, 0x1E, 0xFB, 0x2C, 0x18, 0x07, 0xD6, 0xFD, 0xF4,
  0x05, 0xFF, 0xFE, 0xFB, 0x01, 0xFF, 0x00, 0xFA, 0xF2, 0x04,
  0xF0, 0xFF, 0x0B, 0xFB, 0xF8, 0x0D, 0x0B, 0xFE, 0x23, 0x09,
  0x0B, 0x08, 0x01, 0x14, 0xF8, 0x01, 0xFD, 0xFF, 0x0B, 0xFA,
  0xFB, 0x05, 0xFF, 0x0C, 0xFB, 0x01, 0xFB, 0xEA, 0x00, 0x01,
  0xF3, 0xF8, 0xF6, 0xFE, 0xFB, 0x07, 0xFC, 0x06, 0x18, 0x04,
  0x1D, 0xF0, 0xE9, 0x07, 0xCD, 0x0B, 0xF4, 0xFF, 0x00, 0xFB,
  0xFF, 0xCC, 0xEA, 0x0B, 0x0B, 0xE8, 0x18, 0xEC, 0x09, 0xF4,
  0x00, 0x02, 0x00, 0x00, 0x00, 0xFC, 0x01, 0x01, 0x04, 0xFF,
  0xF9, 0x01, 0xF0, 0xE9, 0x00, 0xFE, 0xF4, 0xF3, 0x01, 0x02,
  0xF1, 0xFB, 0x00, 0xE2, 0x22, 0xF9, 0x03, 0x03, 0xF5, 0xFF,
  0x00, 0x00, 0x03, 0x1F, 0xF3, 0xFD, 0x01, 0xFA, 0x04, 0xF3,
  0xFD, 0xEF, 0xF9, 0xF6, 0xFF, 0xFC, 0x03, 0x07, 0x06, 0xFF,
  0x01, 0xFA, 0x05, 0xFB, 0xF9, 0xFB, 0x03, 0x04, 0xDA, 0xFD,
  0x04, 0xF1, 0xFE, 0x02, 0x0D, 0x09, 0x0B, 0x06, 0x00, 0x01,
  0x04, 0x03, 0x06, 0xFA, 0x00, 0xFE, 0xFA, 0x0D, 0x05, 0x05,
  0x00, 0x04, 0x02, 0xF7, 0xFA, 0xE7, 0xF9, 0xF4, 0xF9, 0x14,
  0x15, 0x09, 0xB3, 0x25, 0x00, 0xFD, 0x06, 0x00, 0x00, 0x0A,
  0x13, 0x02, 0xFB, 0xFB, 0x00, 0x01, 0x01, 0x13, 0x14, 0x16,
  0x1E, 0xFC, 0x0F, 0xD4, 0xF5, 0x20, 0x0C, 0xF5, 0x25, 0xF8,
  0xF7, 0xFE, 0xF2, 0xFC, 0x00, 0x0A, 0x03, 0x12, 0xFA, 0x0C,
  0x03, 0x02, 0xBB, 0x48, 0xFA, 0xE7, 0x08, 0x0C, 0xD7, 0x03,
  0xE1, 0x01, 0x04, 0xF5, 0xFA, 0x26, 0xE5, 0xF5, 0xFA, 0x02,
  0x09, 0xEF, 0xD3, 0xF9, 0xFC, 0x31, 0x18, 0x0A, 0x02, 0xFF,
  0xF6, 0xFD, 0x0A, 0xF2, 0xFB, 0xF6, 0xE6, 0xF3, 0x03, 0x04,
  0xEE, 0xF0, 0xF9, 0xFD, 0xFB, 0xFF, 0xFE, 0xDE, 0xD2, 0xF9,
  0xD0, 0x02, 0xE2, 0x18, 0xE8, 0xFE, 0x33, 0xF3, 0x00, 0xFC,
  0xFF, 0x00, 0x00, 0x02, 0x01, 0x0E, 0x00, 0x08, 0x0C, 0x02,
  0x0E, 0x07, 0x08, 0x08, 0xCF, 0x00, 0xF5, 0xE1, 0x08, 0xED,
  0xFB, 0x04, 0x14, 0x11, 0xF6, 0xF8, 0x01, 0x04, 0x00, 0xFB,
  0x0C, 0x10, 0xDC, 0x04, 0x03, 0xF6, 0x12, 0xEA, 0x04, 0xF6,
  0x38, 0xCC, 0x26, 0x06, 0x44, 0xE9, 0xE7, 0x0F, 0x03, 0x09,
  0x1E, 0x0D, 0x07, 0xFF, 0x0B, 0x16, 0x05, 0x03, 0x01, 0xEE,
  0x15, 0x10, 0x00, 0x00, 0xFD, 0xF4, 0x04, 0xFA, 0x02, 0xFB,
  0x07, 0xFC, 0xFA, 0x1A, 0x14, 0xFC, 0x05, 0x03, 0x08, 0xFF,
  0x04, 0x05, 0x5A, 0xF3, 0x02, 0x09, 0xE5, 0x1A, 0x13, 0x0F,
  0xEE, 0x16, 0x01, 0x0F, 0x00, 0x00, 0xE0, 0xF7, 0xF3, 0xF1,
  0xF8, 0x02, 0x00, 0x02, 0xF5, 0x08, 0x08, 0x09, 0x29, 0xF9,
  0xFE, 0xCA, 0xFF, 0xF2, 0x0D, 0xDD, 0x18, 0x03, 0x03, 0x09,
  0x06, 0x06, 0x00, 0x19, 0xFD, 0x20, 0x16, 0x01, 0xFD, 0xF6,
  0xC6, 0xB1, 0x01, 0xC2, 0x47, 0xE2, 0xF7, 0x01, 0xF8, 0x11,
  0x08, 0xEC, 0xEC, 0xDD, 0x05, 0xF9, 0x06, 0xE9, 0x01, 0x0F,
  0xF9, 0xFC, 0xF9, 0x09, 0x00, 0x1A, 0x09, 0x05, 0x0B, 0x00,
  0x05, 0x04, 0x09, 0x06, 0xF7, 0x01, 0x02, 0xFF, 0x03, 0x0F,
  0x16, 0x14, 0xFB, 0xF8, 0xF8, 0x00, 0x2B, 0xF3, 0xCE, 0xFD,
  0x07, 0xF9, 0xCC, 0x00, 0x0A, 0x36, 0xF8, 0x05, 0x05, 0x00,
  0x00, 0xE5, 0x02, 0xF7, 0x0A, 0xFE, 0xFD, 0x04, 0x00, 0xFE,
  0xFE, 0xFE, 0xF5, 0xFA, 0xCE, 0xED, 0xFB, 0x09, 0xFC, 0x12,
  0x1E, 0x1D, 0x05, 0x0E, 0xFC, 0xFE, 0x00, 0x06, 0x0D, 0x05,
  0xF7, 0x04, 0xFB, 0x14, 0x10, 0xF5, 0xFA, 0x00, 0x1F, 0xEC,
  0x0D, 0xFD, 0xD8, 0x12, 0xFF, 0x01, 0x0A, 0xF7, 0xF0, 0x0E,
  0x09, 0x17, 0x07, 0xF3, 0x06, 0x07, 0x0A, 0x06, 0x0B, 0xFE,
  0x03, 0xFE, 0xFF, 0xF8, 0xFF, 0xF2, 0x05, 0xF1, 0x0C, 0x06,
  0xFF, 0xF7, 0x06, 0x05, 0xED, 0xF9, 0x08, 0x09, 0x03, 0xFA,
  0xEC, 0x19, 0x0B, 0x14, 0x0B, 0xDE, 0xE7, 0x01, 0x16, 0xDD,
  0x01, 0xFD, 0x09, 0xFF, 0xF1, 0x31, 0x22, 0xFF, 0xFB, 0x08,
  0x02, 0x15, 0xFB, 0xF7, 0xF7, 0xF7, 0x01, 0x02, 0xFC, 0x1F,
  0x00, 0x16, 0x13, 0x3D, 0xEE, 0x02, 0x17, 0x0D, 0x08, 0xF4,
  0x00, 0xFF, 0xFB, 0x2E, 0x28, 0x02, 0xFE, 0xF1, 0x02, 0xAC,
  0xFB, 0x07, 0x40, 0x0F, 0xF4, 0xF8, 0xEE, 0xF5, 0x18, 0xFF,
  0xFA, 0x00, 0xF9, 0xE8, 0xE5, 0x05, 0xEC, 0xD7, 0xEE, 0xFE,
  0xFA, 0xF9, 0xFA, 0xF8, 0x15, 0x0B, 0x1A, 0xFF, 0x02, 0xFF,
  0x15, 0x01, 0x06, 0x00, 0x04, 0xFD, 0xF8, 0xF6, 0xF8, 0x08,
  0x02, 0x00, 0x05, 0xFA, 0xE9, 0xDF, 0xEF, 0xFD, 0xF3, 0x0E,
  0xFD, 0x06, 0xE9, 0x1B, 0x00, 0x00, 0x0A, 0x00, 0x00, 0xFE,
  0x03, 0x1B, 0x11, 0xFE, 0xFF, 0x01, 0xF9, 0x09, 0x0D, 0x0D,
  0x1A, 0xEB, 0xEE, 0xD5, 0xF5, 0xDE, 0xE4, 0xF9, 0x3D, 0xFD,
  0x00, 0x04, 0x02, 0x11, 0x00, 0x08, 0x19, 0x0A, 0x0E, 0x09,
  0x0C, 0xE7, 0xCC, 0xFA, 0x08, 0xE5, 0xF0, 0xE8, 0xEB, 0x0C,
  0x27, 0xF5, 0xF6, 0x07, 0xF9, 0xFB, 0x15, 0xF6, 0x0A, 0xFA,
  0x0F, 0xFF, 0x04, 0xFC, 0x0B, 0xFA, 0x00, 0x13, 0x0A, 0x0A,
  0xFD, 0x07, 0x16, 0xF4, 0x0B, 0xF8, 0xF7, 0x01, 0xEF, 0x1A,
  0x15, 0xF8, 0x17, 0xF6, 0xFB, 0xFB, 0xF4, 0xF7, 0x00, 0x18,
  0xEF, 0x02, 0xF9, 0x01, 0x14, 0x0D, 0xBA, 0xFF, 0x05, 0xFD,
  0x07, 0x00, 0x00, 0x1F, 0x01, 0x08, 0xFD, 0xEF, 0xFE, 0xF7,
  0xF8, 0x06, 0x06, 0x0C, 0x13, 0xF7, 0x04, 0xE7, 0x03, 0xFB,
  0x05, 0xDF, 0x20, 0x05, 0x0E, 0x0D, 0x09, 0x0E, 0x00, 0x08,
  0x19, 0xE0, 0xFA, 0xFA, 0xE6, 0xF6, 0x00, 0x23, 0x00, 0xD7,
  0xF4, 0x81, 0xE4, 0xFB, 0x14, 0x2E, 0xF8, 0xFE, 0x00, 0x03,
  0x13, 0xE6, 0xE3, 0xFB, 0xF0, 0xE4, 0xF9, 0xFA, 0xFF, 0x0F,
  0x01, 0x06, 0xFF, 0xFE, 0x0F, 0x01, 0xFF, 0x02, 0x06, 0x05,
  0x05, 0xF8, 0x0D, 0x03, 0xEB, 0xF9, 0xFD, 0xF6, 0xF9, 0xFD,
  0xF0, 0xFF, 0xC1, 0x09, 0x04, 0xF7, 0x25, 0xDF, 0xCC, 0x00,
  0x24, 0xF3, 0x00, 0x01, 0x00, 0x00, 0xFF, 0x0F, 0x00, 0xFD,
  0xFF, 0xF9, 0xFB, 0x00, 0xFC, 0x00, 0x00, 0x00, 0x32, 0xF8,
  0xE6, 0x23, 0xFC, 0xF1, 0x14, 0xFA, 0xCD, 0x02, 0xFE, 0xFF,
  0xFB, 0xF1, 0x00, 0x0E, 0xFC, 0xEA, 0x0E, 0xFF, 0xE7, 0x04,
  0xE1, 0xEA, 0xFC, 0x07, 0xF7, 0x2B, 0x13, 0xFD, 0xF2, 0x01,
  0x10, 0xF2, 0xF3, 0x02, 0xE9, 0xE4, 0xFB, 0x04, 0x03, 0x07,
  0xF0, 0xFF, 0xFF, 0x05, 0x04, 0xFB, 0xFF, 0x00, 0xFF, 0x03,
  0xFF, 0x03, 0xFF, 0x02, 0x00, 0xFD, 0xF9, 0xFD, 0x04, 0x02,
  0x07, 0x08, 0x01, 0xF6, 0x07, 0xFC, 0x18, 0xF3, 0xD3, 0xF4,
  0xE8, 0x1D, 0xF4, 0xFE, 0x10, 0x1B, 0xFD, 0xEE, 0xFF, 0x00,
  0x02, 0x03, 0x13, 0x00, 0x0B, 0x00, 0xFA, 0x03, 0xFC, 0x03,
  0x03, 0x03, 0x37, 0xFC, 0x05, 0xED, 0xFA, 0x02, 0xFE, 0xE5,
  0x2F, 0xF0, 0x07, 0x07, 0xF8, 0xF9, 0x00, 0xFF, 0x00, 0xFF,
  0xE7, 0x09, 0x01, 0x03, 0xAC, 0x58, 0xF4, 0xEF, 0xAD, 0x06,
  0xE4, 0x04, 0xFD, 0x05, 0x00, 0x07, 0x10, 0xFF, 0x05, 0x00,
  0xE8, 0x12, 0x00, 0xF7, 0x03, 0x01, 0x11, 0xE5, 0xF9, 0x02,
  0x06, 0x04, 0x03, 0xFC, 0x0D, 0xF4, 0x05, 0xF7, 0xF7, 0xFE,
  0xF8, 0xF4, 0x06, 0xF3, 0xED, 0x02, 0x05, 0x0E, 0x04, 0xF9,
  0xE6, 0xEC, 0xDF, 0x12, 0xED, 0x18, 0x00, 0x00, 0x10, 0xFE,
  0x00, 0xFF, 0xEB, 0x00, 0xFD, 0x01, 0xF3, 0xFE, 0xFF, 0x05,
  0x0B, 0x07, 0x0E, 0x07, 0x00, 0x00, 0xD8, 0x09, 0x48, 0x2E,
  0x09, 0xE5, 0x01, 0xE4, 0xFE, 0x0E, 0x08, 0xF7, 0x07, 0xFF,
  0x00, 0xFD, 0xFD, 0xFE, 0xFB, 0x06, 0x30, 0x03, 0x15, 0x02,
  0x08, 0x13, 0x17, 0xD7, 0x06, 0x05, 0xF7, 0x1B, 0xFB, 0x12,
  0x00, 0xFF, 0x09, 0xF5, 0xFA, 0x04, 0xEB, 0x0C, 0xFA, 0x08,
  0xFF, 0xEA, 0xFE, 0x01, 0xF9, 0xFA, 0x0A, 0xF8, 0x03, 0x0E,
  0x01, 0x0D, 0x01, 0x00, 0xF5, 0x01, 0xF6, 0xF2, 0x0F, 0x09,
  0xFD, 0xFE, 0x07, 0x00, 0xE2, 0xF9, 0xEA, 0x01, 0xF6, 0x0C,
  0xFD, 0x00, 0x0A, 0xEC, 0x00, 0x22, 0x00, 0x00, 0xE2, 0x0D,
  0xDC, 0x0C, 0xF5, 0x0A, 0x0A, 0x07, 0x09, 0x09, 0x09, 0x09,
  0x56, 0x0A, 0xE9, 0x01, 0x04, 0x0A, 0x14, 0xEA, 0xF3, 0x1D,
  0x0A, 0x0C, 0x0B, 0x0E, 0x00, 0xFE, 0xFE, 0xF0, 0x0D, 0x09,
  0x00, 0x0A, 0xEF, 0x12, 0x0B, 0xEC, 0xA8, 0xFC, 0xE0, 0x0A,
  0x15, 0x10, 0x08, 0x0C, 0xF7, 0x03, 0xFD, 0xE0, 0xFA, 0xFA,
  0xF5, 0xF7, 0xDE, 0x04, 0xF5, 0xF4, 0xF5, 0xFF, 0x0E, 0x0E,
  0x0F, 0x09, 0x0D, 0x0C, 0x09, 0x0C, 0xFC, 0x05, 0x01, 0xF8,
  0xF5, 0xF6, 0xF6, 0x06, 0x06, 0xF7, 0x06, 0xF7, 0xEF, 0xCA,
  0x12, 0x04, 0x13, 0xF1, 0x02, 0x00, 0x20, 0xFD, 0x00, 0x00,
  0xCF, 0x00, 0x00, 0x01, 0x9F, 0xE4, 0xF4, 0x09, 0x07, 0x0A,
  0xF9, 0x0C, 0x0B, 0x0D, 0x1E, 0x02, 0x00, 0xE4, 0xFD, 0x19,
  0x10, 0xFA, 0x10, 0xF3, 0x17, 0xFB, 0x0B, 0x00, 0x00, 0x05,
  0x0F, 0xE5, 0x1A, 0xFF, 0xF4, 0x07, 0x04, 0xEE, 0xFC, 0xFF,
  0x1C, 0xEF, 0xF7, 0xFE, 0xEB, 0xFF, 0xF8, 0xFD, 0xF3, 0xF3,
  0x09, 0xC7, 0xF4, 0xF8, 0xEE, 0xE9, 0x07, 0xF9, 0xF4, 0xF7,
  0xF0, 0x0F, 0x10, 0x09, 0x15, 0xFD, 0xFB, 0xFB, 0x0F, 0xFE,
  0x04, 0x00, 0x13, 0xEF, 0xF2, 0x00, 0xFA, 0x01, 0xFA, 0xF4,
  0xFB, 0xFB, 0xEC, 0x01, 0x0A, 0xCF, 0x20, 0x0D, 0xC6, 0x19,
  0xFA, 0x15, 0x01, 0x0C, 0x10, 0x00, 0x23, 0xDD, 0x20, 0x09,
  0xFE, 0x05, 0x0D, 0xFB, 0x12, 0x05, 0x05, 0x05, 0xC3, 0x09,
  0x05, 0x07, 0x10, 0xF2, 0x0D, 0x16, 0x29, 0x07, 0x05, 0x00,
  0x0D, 0xF6, 0x00, 0xF7, 0xFD, 0xEC, 0xF6, 0xFE, 0x0A, 0x09,
  0xFA, 0x0C, 0x09, 0xFB, 0xFF, 0xD8, 0xEE, 0x0A, 0xDA, 0x06,
  0xFB, 0x2D, 0x06, 0x09, 0xFF, 0xFD, 0x07, 0x03, 0x25, 0x0E,
  0x00, 0x07, 0xFF, 0xEF, 0xED, 0x0D, 0x01, 0x00, 0x02, 0xF8,
  0xFD, 0xFE, 0x01, 0x00, 0x14, 0x00, 0x0D, 0x0C, 0x01, 0x0C,
  0x01, 0x02, 0x04, 0xFC, 0x03, 0xFC, 0x0F, 0xCD, 0xF1, 0xF3,
  0xF0, 0x1F, 0xF9, 0x00, 0x0C, 0xE7, 0x03, 0x16, 0xED, 0x00,
  0x00, 0x01, 0x04, 0x02, 0xF7, 0x00, 0x00, 0xF8, 0x04, 0xFC,
  0xFE, 0xFE, 0xFB, 0x00, 0xF9, 0xFF, 0x04, 0x0C, 0x1E, 0x04,
  0xE4, 0xDA, 0xFB, 0xF1, 0x02, 0xEC, 0x00, 0x05, 0x03, 0xBF,
  0xE8, 0xF8, 0xEC, 0xFF, 0xF1, 0x03, 0x0E, 0xE8, 0x12, 0xF7,
  0xC4, 0x07, 0x1B, 0xFE, 0x05, 0xFF, 0xF7, 0xF4, 0xFD, 0xE0,
  0x07, 0xFE, 0xF4, 0xF9, 0x04, 0x0A, 0xF7, 0xF7, 0x00, 0xFC,
  0xF4, 0xF5, 0xFD, 0xFC, 0xFA, 0x05, 0xF9, 0x03, 0x00, 0xF6,
  0x13, 0x0A, 0x11, 0x16, 0x04, 0x10, 0x0A, 0xEE, 0x0C, 0xE3,
  0xF4, 0xF5, 0xF6, 0xF5, 0xFA, 0x0D, 0x22, 0x00, 0xE7, 0xF9,
  0x00, 0x16, 0xEF, 0x01, 0x00, 0xF8, 0xF9, 0x01, 0x07, 0x02,
  0x18, 0x08, 0x1D, 0x0B, 0x0F, 0x09, 0x02, 0xF3, 0x0F, 0xC8,
  0x0B, 0x16, 0x19, 0xFF, 0x0B, 0x06, 0xEF, 0xF8, 0xED, 0x05,
  0x00, 0x04, 0x08, 0x1E, 0xE5, 0xF1, 0x0C, 0x0D, 0x03, 0xFD,
  0x00, 0xFA, 0x52, 0xF9, 0x05, 0x01, 0xE5, 0x05, 0xFA, 0xFC,
  0x08, 0x0D, 0xFF, 0x00, 0xEE, 0x09, 0xF0, 0x08, 0xDD, 0x00,
  0x09, 0x1B, 0x20, 0x18, 0x03, 0x06, 0xF8, 0xED, 0xF1, 0xFE,
  0xFF, 0x05, 0xEF, 0x02, 0x0A, 0x01, 0x02, 0xFD, 0xF2, 0x07,
  0x03, 0x0B, 0x08, 0x00, 0x4C, 0xDD, 0xEE, 0x03, 0xDD, 0x1B,
  0x0C, 0x00, 0x21, 0xF8, 0xFE, 0x12, 0x04, 0x00, 0xF8, 0xE6,
  0x0A, 0xFE, 0xFF, 0xFC, 0xFE, 0x04, 0x03, 0xFB, 0xFB, 0xFB,
  0x19, 0xF8, 0x02, 0x0A, 0xFB, 0x05, 0x05, 0xF7, 0xE3, 0xB3,
  0x00, 0x00, 0xF9, 0xFE, 0x00, 0xFC, 0xFA, 0x11, 0xF7, 0x04,
  0xFC, 0x07, 0xFF, 0xFC, 0xFF, 0x16, 0x06, 0x01, 0x16, 0xFF,
  0xF3, 0x0B, 0x00, 0xFA, 0xFF, 0xFB, 0xFF, 0xFD, 0xFC, 0x02,
  0xF8, 0xFD, 0x03, 0x00, 0xFF, 0xFF, 0xFC, 0xFD, 0xFF, 0xFD,
  0x04, 0xFD, 0x05, 0xFE, 0x02, 0xFE, 0x1E, 0xF4, 0x0B, 0xFB,
  0xFE, 0x00, 0xFB, 0x02, 0xFF, 0x00, 0x00, 0xFC, 0xFB, 0xF3,
  0x0E, 0x10, 0xF0, 0xFF, 0xF3, 0xEE, 0x1D, 0xFF, 0xFD, 0xFE,
  0x02, 0x00, 0xFD, 0x0A, 0x01, 0x01, 0xFB, 0xFD, 0x0A, 0x01,
  0x05, 0x01, 0x01, 0x01, 0x24, 0x01, 0x28, 0x33, 0x07, 0xE6,
  0x03, 0x15, 0xE6, 0x03, 0x06, 0xFB, 0x0A, 0x12, 0x00, 0xFD,
  0xFE, 0x03, 0xF9, 0xFD, 0x15, 0x03, 0x08, 0xFB, 0x06, 0xF1,
  0x3D, 0x0A, 0x05, 0x02, 0xFA, 0x0D, 0x07, 0xFA, 0xFD, 0x05,
  0x0C, 0x0F, 0xF5, 0x03, 0xED, 0xFD, 0xF9, 0xF8, 0xFF, 0xEB,
  0xF9, 0xFB, 0xF5, 0xF9, 0x06, 0xFD, 0x00, 0x0D, 0x00, 0x09,
  0x03, 0xFF, 0x01, 0xFF, 0xFB, 0xF9, 0xF8, 0x05, 0xF8, 0xFF,
  0xFC, 0xF0, 0xC2, 0xF9, 0x06, 0x00, 0x13, 0xED, 0x12, 0xF7,
  0x01, 0x04, 0x00, 0x02, 0x00, 0x00, 0xFE, 0xF2, 0xF6, 0x00,
  0xF7, 0xFA, 0xF7, 0xFF, 0xF4, 0x06, 0x03, 0x03, 0xFF, 0xFC,
  0x0E, 0xF5, 0xF8, 0x06, 0xFF, 0xCF, 0x10, 0x06, 0x03, 0x03,
  0xFA, 0x12, 0x00, 0xFA, 0xFC, 0x04, 0x03, 0x04, 0x01, 0xFC,
  0xEE, 0xF7, 0xF3, 0xFF, 0xF3, 0xFA, 0x04, 0xF4, 0x03, 0xFA,
  0x07, 0x00, 0xF7, 0x07, 0xFB, 0xFF, 0xFD, 0x00, 0x09, 0x06,
  0xF9, 0xFC, 0xF7, 0xF8, 0xFD, 0x02, 0x02, 0xFC, 0xFE, 0xF9,
  0x05, 0xF5, 0x03, 0xF4, 0x00, 0x00, 0x03, 0xFC, 0xFA, 0x03,
  0x02, 0xFF, 0xFE, 0xF6, 0xFB, 0x00, 0xED, 0x08, 0xE9, 0x05,
  0x1B, 0xE2, 0x10, 0x00, 0xF8, 0x15, 0x00, 0xF1, 0x00, 0x00,
  0x00, 0xF8, 0xA8, 0xFA, 0xEC, 0x0B, 0x02, 0x0D, 0xEF, 0x06,
  0x06, 0x06, 0x29, 0x0B, 0xD9, 0x19, 0x02, 0x11, 0x05, 0x21,
  0x2B, 0x1A, 0x1F, 0x10, 0x09, 0x02, 0x00, 0x01, 0x11, 0xE9,
  0x19, 0x0D, 0xF4, 0x16, 0x04, 0xF9, 0xF2, 0xE6, 0x1E, 0xDE,
  0xE2, 0xF0, 0xED, 0x05, 0xFD, 0xFA, 0xEC, 0xFA, 0xFB, 0xCB,
  0xFC, 0xFC, 0xFA, 0xEF, 0x04, 0x00, 0xEC, 0xFF, 0xF0, 0x0F,
  0x10, 0x0C, 0x1A, 0x04, 0x0A, 0x00, 0x17, 0xFD, 0x05, 0xF1,
  0x14, 0xF1, 0xFE, 0x05, 0xFE, 0x07, 0xFD, 0xEB, 0x04, 0xF4,
  0xB9, 0xDB, 0x1B, 0xDE, 0x17, 0x13, 0xDC, 0x00, 0x1C, 0x06,
  0x03, 0x03, 0xF2, 0x00, 0x00, 0xF6, 0x07, 0xC9, 0xFD, 0xF5,
  0x03, 0x00, 0x08, 0x05, 0x0A, 0x05, 0xE6, 0xEF, 0x1B, 0xE9,
  0x00, 0x1C, 0x12, 0xFC, 0xF7, 0x02, 0x03, 0xFD, 0x03, 0xFC,
  0x00, 0x03, 0x02, 0xDD, 0x05, 0xF6, 0xF8, 0xFD, 0xEB, 0xE8,
  0x05, 0xDA, 0x14, 0xC3, 0xFA, 0x01, 0x11, 0x09, 0x04, 0xED,
  0xFD, 0xF2, 0x13, 0xF9, 0xDD, 0xF9, 0xF0, 0xEB, 0xF7, 0xF1,
  0xFD, 0xF9, 0xFA, 0x0F, 0x0E, 0x07, 0x11, 0x00, 0x01, 0x09,
  0x05, 0x0C, 0x01, 0xFC, 0x0C, 0x06, 0xFD, 0x0F, 0x11, 0x04,
  0xF6, 0xFD, 0xFC, 0xEB, 0xEA, 0xE0, 0xFB, 0xFC, 0xE6, 0x17,
  0xC7, 0x00, 0x15, 0x2C, 0x00, 0x0E, 0x01, 0x00, 0x00, 0xD7,
  0xDF, 0xED, 0xFD, 0x00, 0x0A, 0xF9, 0xF2, 0x03, 0x05, 0x0A,
  0x41, 0x07, 0xDE, 0xF5, 0x08, 0x1C, 0x13, 0xFA, 0xFA, 0x0D,
  0x14, 0x0B, 0x10, 0xF8, 0x00, 0xF4, 0xF3, 0xF9, 0x26, 0xF7,
  0x09, 0x15, 0xEF, 0x04, 0x05, 0xE5, 0xC5, 0xF4, 0xFC, 0x01,
  0xF9, 0xDD, 0xF3, 0xF7, 0xFC, 0xFE, 0x01, 0xE7, 0xF9, 0xF3,
  0xFA, 0x00, 0x02, 0xF7, 0xFC, 0xEF, 0xF7, 0x0E, 0xFE, 0x02,
  0x11, 0x0B, 0x05, 0x0F, 0x12, 0x16, 0xFE, 0x01, 0x0E, 0xF1,
  0xFC, 0x03, 0xFD, 0x01, 0xF9, 0xF9, 0xFD, 0xF2, 0xE8, 0xF4,
  0x00, 0x00, 0x09, 0xF1, 0x1B, 0x01, 0x1F, 0x00, 0x00, 0xFF,
  0xC0, 0x00, 0x00, 0xF5, 0x01, 0x0C, 0x05, 0xFA, 0xF7, 0xF6,
  0xE5, 0xF2, 0x08, 0x0D, 0x16, 0xFB, 0x02, 0x07, 0xFC, 0xF5,
  0xF1, 0xE9, 0x20, 0x17, 0x1C, 0x0C, 0x12, 0xEA, 0x00, 0xFF,
  0xFF, 0xE2, 0x17, 0xF4, 0xFD, 0x08, 0x09, 0xFE, 0xFC, 0xD2,
  0xC0, 0xCE, 0xB7, 0xFE, 0xDF, 0x2E, 0xFB, 0x10, 0x02, 0x0D,
  0x0E, 0xDB, 0xDF, 0xEB, 0xE0, 0xF1, 0xDA, 0xFF, 0x00, 0xF3,
  0x07, 0x06, 0xF4, 0xF8, 0x23, 0xFB, 0x09, 0xFC, 0x0E, 0xFF,
  0x07, 0xFE, 0x16, 0x09, 0x19, 0x15, 0xF8, 0x04, 0x04, 0x0B,
  0xFC, 0x04, 0xD6, 0x01, 0xFC, 0xC8, 0x1A, 0x06, 0xF7, 0x00,
  0xE0, 0x05, 0x00, 0x31, 0xE4, 0x05, 0x00, 0x00, 0x2F, 0xEB,
  0xFB, 0x01, 0xFF, 0x02, 0xF0, 0x00, 0x00, 0x00, 0x01, 0x02,
  0xEF, 0x09, 0x03, 0x1C, 0x1D, 0x17, 0xF3, 0xFF, 0x13, 0x08,
  0x0C, 0xEC, 0x00, 0x0C, 0x0B, 0xC1, 0x11, 0x05, 0xD9, 0x06,
  0x03, 0xF6, 0xFA, 0x12, 0x06, 0xA1, 0xED, 0xFD, 0xF6, 0x02,
  0x11, 0xFE, 0xFB, 0x12, 0x05, 0xFC, 0xE9, 0xF9, 0xE4, 0xD6,
  0xFD, 0xFC, 0xFB, 0x08, 0x09, 0xFD, 0x02, 0xFF, 0x13, 0xFC,
  0x02, 0x02, 0x0F, 0x06, 0x06, 0x00, 0x06, 0xF7, 0xFB, 0x02,
  0xF9, 0x01, 0x01, 0xFC, 0x00, 0xFC, 0xBA, 0xED, 0xF6, 0xFE,
  0x1A, 0xED, 0xD6, 0x00, 0x0F, 0x21, 0xFF, 0x14, 0xF4, 0x00,
  0x00, 0xEE, 0x0E, 0xFE, 0x05, 0x02, 0xF4, 0x0F, 0xEE, 0x03,
  0x03, 0x03, 0x0C, 0xEB, 0xE8, 0xDB, 0xED, 0xF2, 0x02, 0x3A,
  0x0B, 0x01, 0x09, 0xF9, 0xF5, 0xFD, 0x00, 0xFF, 0x1B, 0x28,
  0x02, 0xF4, 0x11, 0xF6, 0xFF, 0xBC, 0x06, 0xE9, 0x55, 0x0C,
  0xE9, 0xF7, 0xE8, 0xFC, 0xFD, 0x08, 0x03, 0xFC, 0x17, 0xF6,
  0xFE, 0xF5, 0xFA, 0xF5, 0xFD, 0xFE, 0x05, 0xED, 0xFC, 0x06,
  0x16, 0x0C, 0x18, 0x03, 0x09, 0x02, 0x13, 0x06, 0x00, 0xF0,
  0x10, 0x02, 0x1A, 0x04, 0x19, 0x03, 0xFB, 0x05, 0xFF, 0xF4,
  0xDA, 0x1A, 0x1C, 0x09, 0x17, 0xDA, 0x0B, 0x0C, 0xD2, 0x00,
  0x02, 0x05, 0xF7, 0x01, 0x00, 0x1C, 0x05, 0x01, 0xFF, 0xFD,
  0xF3, 0x05, 0x02, 0x0C, 0x0F, 0x0C, 0x3F, 0xF9, 0x00, 0xE3,
  0xF5, 0xF1, 0xFC, 0xB8, 0x1D, 0xFF, 0xF2, 0xF9, 0xF1, 0x11,
  0x00, 0x00, 0xF8, 0xFF, 0xEB, 0xF5, 0x20, 0xFD, 0xBA, 0x49,
  0xF9, 0xDD, 0x1C, 0x03, 0xC5, 0xF9, 0xF7, 0xE5, 0xD8, 0xF8,
  0xFE, 0xE5, 0xF6, 0x14, 0xE7, 0xED, 0xCC, 0xF7, 0xF8, 0x00,
  0x00, 0xF1, 0x06, 0x08, 0x04, 0x04, 0xFE, 0x00, 0xF3, 0xFD,
  0xF9, 0xFE, 0xEF, 0xEB, 0xED, 0x0E, 0x05, 0x04, 0x0D, 0x05,
  0x02, 0xF9, 0x03, 0x08, 0x0D, 0xFF, 0x0A, 0x03, 0xD1, 0x2F,
  0x23, 0x02, 0xE7, 0x04, 0xF9, 0xF8, 0x1E, 0x00, 0xFF, 0xF8,
  0x01, 0xFD, 0x13, 0xFA, 0xF7, 0x00, 0x01, 0xFE, 0xFE, 0xFE,
  0xEF, 0xF5, 0xF0, 0x01, 0xF8, 0x12, 0x14, 0x04, 0x02, 0xB5,
  0xF7, 0x00, 0xF6, 0xFF, 0x00, 0xFF, 0xFC, 0x0E, 0xEB, 0xFC,
  0x0C, 0x0E, 0x0B, 0xED, 0x01, 0x0F, 0x1A, 0xEF, 0x21, 0xFF,
  0xE3, 0x18, 0x0A, 0x02, 0x0C, 0x0C, 0xF4, 0x00, 0x07, 0x29,
  0x0A, 0xF3, 0xFD, 0xFA, 0x12, 0x08, 0xFD, 0x00, 0xF8, 0xFC,
  0xFD, 0x02, 0xF9, 0x07, 0xF8, 0x04, 0x1C, 0xFC, 0xF9, 0x0D,
  0x08, 0xFF, 0x11, 0xF8, 0x04, 0x0E, 0xFD, 0xF8, 0x02, 0xEA,
  0xFD, 0x19, 0xFB, 0xE7, 0xF5, 0x03, 0x1A, 0xED, 0xFF, 0xD9,
  0x06, 0xFF, 0xE5, 0x3A, 0xDC, 0xF6, 0x03, 0x09, 0x0F, 0x1A,
  0x27, 0x23, 0x0D, 0x17, 0x09, 0xFB, 0x1A, 0xFC, 0x08, 0x03,
  0xF9, 0xE8, 0x2F, 0x0E, 0xFB, 0xFC, 0xFA, 0xFD, 0x00, 0xF9,
  0xFB, 0x2E, 0xE2, 0xFC, 0x16, 0xFE, 0xFF, 0x0D, 0xF0, 0x08,
  0x1E, 0xE6, 0xFC, 0xF4, 0xE5, 0xE0, 0xEA, 0xFF, 0x0A, 0xE9,
  0x03, 0x0E, 0xE2, 0x19, 0xE9, 0xF5, 0xEF, 0x05, 0x02, 0xEC,
  0x02, 0x32, 0x0B, 0x14, 0xED, 0xF7, 0xF6, 0xF7, 0x00, 0xF2,
  0x00, 0xF8, 0xF0, 0xFE, 0x00, 0xFB, 0xF1, 0x04, 0xFA, 0x00,
  0xFF, 0xF0, 0xF4, 0xF3, 0xE0, 0xFE, 0x14, 0xF2, 0x0C, 0x00,
  0x1C, 0xF9, 0x00, 0xFF, 0x00, 0x00, 0x00, 0xF4, 0x05, 0x09,
  0x00, 0x07, 0x02, 0x08, 0x06, 0x06, 0x09, 0x0A, 0x27, 0x01,
  0x15, 0xC5, 0x04, 0x03, 0x09, 0xEA, 0x02, 0x08, 0x00, 0x03,
  0xFE, 0x03, 0x00, 0x0A, 0x00, 0xF6, 0xF4, 0x04, 0xEE, 0xF9,
  0xD2, 0xB4, 0xF8, 0x14, 0x28, 0x03, 0xFE, 0xFA, 0xE3, 0x06,
  0xE6, 0xED, 0xFA, 0xDA, 0xF5, 0x00, 0xE8, 0x01, 0xFE, 0x0B,
  0xFC, 0x05, 0xF9, 0x06, 0x17, 0xFD, 0x0C, 0x02, 0x0F, 0xF8,
  0x07, 0xF6, 0x06, 0x00, 0x00, 0x01, 0x07, 0x00, 0xF9, 0x02,
  0x0B, 0x17, 0x0E, 0xF9, 0x0C, 0x08, 0x58, 0xED, 0xED, 0x16,
  0xC3, 0x27, 0x08, 0xFD, 0xD8, 0x2C, 0xF6, 0x13, 0x0E, 0x01,
  0xF9, 0xF4, 0x01, 0x03, 0x02, 0xFE, 0xFE, 0xF8, 0xF5, 0x02,
  0x08, 0x07, 0x04, 0xF6, 0x04, 0xF5, 0x00, 0xF6, 0x04, 0xE3,
  0x20, 0x0D, 0x01, 0xFB, 0x03, 0xFC, 0x00, 0xFD, 0xFE, 0xFF,
  0xED, 0x00, 0x01, 0xF5, 0xF1, 0xFA, 0xFF, 0xF3, 0xEE, 0xFA,
  0xEF, 0xFD, 0x14, 0x09, 0x05, 0xF5, 0x02, 0xE4, 0x02, 0xFD,
  0xEA, 0x01, 0xEE, 0xF6, 0xF0, 0xF8, 0x02, 0xF3, 0xF2, 0x04,
  0x09, 0x05, 0x0A, 0xFC, 0x05, 0x04, 0x07, 0x07, 0x08, 0xFA,
  0x02, 0x03, 0x09, 0x0C, 0x19, 0x05, 0xF8, 0x01, 0xF7, 0xFB,
  0xEC, 0xFD, 0xF4, 0xE1, 0xF6, 0x26, 0x18, 0x05, 0xCF, 0x00,
  0x00, 0x04, 0x08, 0x01, 0x00, 0x04, 0x12, 0x08, 0x05, 0xFF,
  0xFF, 0x14, 0x02, 0x1C, 0x28, 0x25, 0x12, 0xF6, 0x03, 0xC2,
  0xFE, 0xFA, 0xFB, 0xF9, 0x1A, 0x08, 0xF1, 0x08, 0xE7, 0x1C,
  0x00, 0xF6, 0x03, 0xF9, 0xF9, 0x0F, 0x07, 0x03, 0xED, 0x02,
  0xEE, 0xF8, 0x42, 0x0C, 0xFE, 0xF7, 0xD6, 0x00, 0x00, 0xE5,
  0xF6, 0xF0, 0xF5, 0x05, 0x05, 0xFA, 0xF8, 0x06, 0xFD, 0xFE,
  0x07, 0xF8, 0x12, 0x0C, 0x08, 0x03, 0x03, 0x00, 0x14, 0xF4,
  0x06, 0xF6, 0xF9, 0xFE, 0xFA, 0x00, 0xFA, 0xFC, 0xFF, 0x06,
  0x07, 0xE9, 0x07, 0xEF, 0x58, 0xF8, 0xFB, 0x21, 0xB5, 0x34,
  0x31, 0x01, 0xE7, 0x2A, 0xF8, 0xE4, 0x0A, 0x00, 0xD8, 0x0D,
  0xF7, 0x00, 0xFA, 0x0E, 0x08, 0x07, 0x14, 0x0C, 0x0B, 0x0A,
  0x0F, 0x0E, 0x36, 0x1F, 0x04, 0x0A, 0x01, 0xF7, 0xCB, 0x0E,
  0xFA, 0xF7, 0xFA, 0x1A, 0x00, 0xF9, 0x01, 0x03, 0xDB, 0xF4,
  0x13, 0xFE, 0x0B, 0x13, 0x0D, 0xDF, 0x43, 0x14, 0x3F, 0x0B,
  0xEA, 0xE5, 0x02, 0xF2, 0x03, 0x19, 0xF9, 0xF9, 0xFE, 0x05,
  0x12, 0x10, 0xE8, 0xFB, 0xFA, 0xF9, 0xF7, 0x10, 0x01, 0x02,
  0xFB, 0xFA, 0xF4, 0xFE, 0xF7, 0xFD, 0x14, 0xFA, 0x04, 0x0E,
  0x06, 0x05, 0xF8, 0xEF, 0xF3, 0x00, 0xFD, 0xF8, 0xD8, 0x1D,
  0x0F, 0x02, 0xE8, 0x11, 0x09, 0xF2, 0x35, 0xED, 0xFE, 0xFC,
  0x00, 0x00, 0x07, 0xEA, 0x02, 0x03, 0xE8, 0x0C, 0x0A, 0x0B,
  0x10, 0x07, 0x01, 0x01, 0x27, 0x13, 0xFA, 0x20, 0x14, 0x0F,
  0x10, 0x0C, 0xE2, 0x07, 0x03, 0x0B, 0x0A, 0xFE, 0x00, 0x0E,
  0xFB, 0xEF, 0xE5, 0x14, 0xE2, 0x11, 0xEF, 0xEA, 0x08, 0x08,
  0x05, 0x2A, 0x0F, 0x11, 0xD8, 0x08, 0x10, 0xF4, 0xEC, 0xF4,
  0xCF, 0x08, 0xFB, 0xFF, 0x1C, 0xFA, 0xFE, 0x03, 0xF6, 0x01,
  0x06, 0xFD, 0xFB, 0xFD, 0x03, 0x00, 0x14, 0xFC, 0x00, 0xF9,
  0x0B, 0x09, 0xEF, 0xEC, 0x09, 0xFC, 0xF4, 0x04, 0x02, 0xFC,
  0x00, 0xF7, 0x07, 0xE3, 0xDD, 0x16, 0xE2, 0x06, 0xF9, 0xE8,
  0x38, 0xE4, 0x00, 0xEE, 0x0C, 0x00, 0x00, 0x14, 0xFC, 0x00,
  0x0D, 0x04, 0x06, 0x03, 0x0A, 0x01, 0x00, 0x00, 0xF9, 0x04,
  0xDC, 0xF1, 0x05, 0xF1, 0xF7, 0xFD, 0xF8, 0x35, 0xFC, 0x09,
  0x02, 0x03, 0x00, 0xFE, 0xFD, 0x00, 0xF8, 0x05, 0x0B, 0x05,
  0x0E, 0x01, 0x06, 0x04, 0x12, 0xF1, 0x15, 0x08, 0xF3, 0x05,
  0x07, 0x00, 0x0B, 0xF7, 0xFE, 0x1F, 0x08, 0x10, 0xFF, 0xFF,
  0x08, 0x02, 0x0D, 0xF2, 0xFE, 0x04, 0xFE, 0x04, 0xFA, 0x05,
  0x01, 0x01, 0xFC, 0x00, 0x1E, 0x01, 0xFF, 0x09, 0x04, 0x07,
  0x08, 0xFE, 0x02, 0x0C, 0x05, 0x03, 0x05, 0x1C, 0x04, 0x06,
  0xFA, 0xFD, 0x0D, 0xF4, 0xFF, 0xEC, 0x00, 0x01, 0x04, 0x00,
  0xFF, 0x13, 0x08, 0x02, 0xFC, 0x05, 0x09, 0x09, 0x11, 0x1B,
  0x15, 0x14, 0xDC, 0x04, 0x10, 0x1C, 0x06, 0xE6, 0xF0, 0x0D,
  0xFF, 0xE3, 0x00, 0x0E, 0x03, 0x01, 0x00, 0x04, 0x00, 0x2A,
  0xFD, 0x0C, 0x26, 0x17, 0x0E, 0x1E, 0x02, 0xE9, 0x24, 0x00,
  0x50, 0x09, 0xEA, 0xF3, 0xF4, 0x06, 0xF6, 0xFC, 0x0B, 0x17,
  0x07, 0x0D, 0xEE, 0x13, 0xE9, 0x07, 0xE8, 0xD6, 0x01, 0x1E,
  0x09, 0x0E, 0xFB, 0x02, 0x04, 0x02, 0x02, 0x04, 0x05, 0xFF,
  0x09, 0x00, 0xF7, 0x02, 0xEB, 0xF5, 0xF5, 0xF8, 0x0B, 0x01,
  0x06, 0x14, 0xFF, 0xFA, 0xEF, 0x14, 0xFB, 0xDC, 0x4C, 0xDD,
  0xFC, 0xFE, 0x00, 0x00, 0x04, 0x01, 0x2D, 0xEC, 0x07, 0xFD,
  0xF8, 0x00, 0xFB, 0xFC, 0xFC, 0xFC, 0xF9, 0xF9, 0x04, 0x2C,
  0xF9, 0x16, 0x0F, 0x1D, 0x19, 0x07, 0x03, 0x0A, 0xFC, 0x06,
  0x00, 0x08, 0x11, 0x2E, 0x0A, 0xF1, 0xF8, 0xF3, 0x04, 0x00,
  0xFF, 0x07, 0x0C, 0x07, 0xFC, 0xFC, 0x0C, 0xFA, 0x14, 0xFA,
  0x04, 0x03, 0xFD, 0xE3, 0xDF, 0x0B, 0xF3, 0xE0, 0x00, 0xFA,
  0x08, 0xFF, 0x00, 0xFF, 0x11, 0x0B, 0x0A, 0x01, 0x03, 0x04,
  0x07, 0x06, 0xFD, 0xFF, 0xF2, 0xEC, 0xF1, 0xF3, 0xFC, 0x01,
  0xFC, 0x04, 0xFF, 0xFB, 0xB7, 0xE4, 0xFE, 0x01, 0x18, 0xE6,
  0xFE, 0x02, 0xF4, 0x1E, 0xFF, 0x00, 0x01, 0x00, 0x00, 0xF3,
  0x47, 0x05, 0x01, 0x00, 0x05, 0x05, 0x01, 0x03, 0x03, 0x02,
  0xEB, 0x03, 0x15, 0x02, 0x09, 0x0F, 0x19, 0x0B, 0xF9, 0xFE,
  0x05, 0x00, 0x06, 0x12, 0x00, 0x1C, 0x02, 0x26, 0xFD, 0xF9,
  0x14, 0x02, 0x11, 0xEC, 0x05, 0xED, 0xC7, 0xFA, 0x1E, 0x04,
  0xF3, 0x0F, 0x07, 0x00, 0x00, 0xEC, 0x02, 0x07, 0xFC, 0xFF,
  0xF6, 0xFC, 0x04, 0x0A, 0x01, 0xE5, 0x03, 0x03, 0x03, 0x02,
  0x01, 0xFF, 0xFC, 0x06, 0x05, 0x07, 0xFD, 0xFC, 0x0A, 0xF6,
  0xF2, 0x01, 0xF0, 0x12, 0x09, 0x02, 0x0D, 0xFC, 0xF0, 0xF0,
  0xC6, 0x01, 0x06, 0xF9, 0x0F, 0xFC, 0xFE, 0xF6, 0xFD, 0x17,
  0xF4, 0x00, 0x00, 0xF9, 0x13, 0x19, 0x06, 0xF7, 0xF9, 0x01,
  0xD5, 0xF6, 0x0D, 0x06, 0x27, 0xE7, 0xDE, 0xFA, 0x04, 0xE7,
  0x00, 0x12, 0x22, 0x11, 0x10, 0x05, 0x15, 0x04, 0x00, 0xF7,
  0x0E, 0xA6, 0x08, 0xF9, 0xE4, 0x0B, 0x05, 0x02, 0x16, 0xDC,
  0xF4, 0xC0, 0xC5, 0x06, 0xEE, 0x38, 0xF9, 0x09, 0xFF, 0xFF,
  0x0C, 0xFC, 0xE9, 0xE4, 0xEC, 0xF9, 0xCB, 0xF6, 0xFE, 0x0A,
  0xFE, 0xFA, 0x00, 0x02, 0x1D, 0x0D, 0xFD, 0x17, 0x16, 0x1A,
  0xFF, 0xFA, 0x04, 0x07, 0x18, 0xFD, 0x21, 0x03, 0xFF, 0x01,
  0xFE, 0x05, 0xD2, 0xDE, 0x0F, 0xC4, 0x32, 0xF9, 0xE4, 0x00,
  0xDA, 0x11, 0x08, 0x06, 0x0B, 0x00, 0x00, 0x07, 0x0C, 0x07,
  0x08, 0xFA, 0x05, 0xFC, 0x07, 0x0C, 0x0A, 0x0B, 0x16, 0x02,
  0xEF, 0x02, 0x0C, 0x29, 0x25, 0xE4, 0x0D, 0x09, 0x06, 0xFD,
  0x08, 0xFA, 0x00, 0xFF, 0x02, 0x1B, 0xED, 0x03, 0xF0, 0xF4,
  0xAE, 0x61, 0xFF, 0xE4, 0xB0, 0x08, 0xF4, 0x0A, 0xF1, 0x02,
  0x0C, 0x28, 0x10, 0x1C, 0x03, 0x00, 0xFD, 0x18, 0x06, 0x02,
  0xFE, 0x01, 0x07, 0xDF, 0xFF, 0xF6, 0xF9, 0xFC, 0x06, 0xF6,
  0x09, 0x01, 0x01, 0x02, 0xF7, 0xF3, 0x05, 0xFE, 0xF9, 0xF2,
  0xF4, 0xFC, 0x02, 0x0C, 0x02, 0xFF, 0x09, 0xBF, 0x0C, 0x00,
  0xEE, 0x13, 0xD9, 0x01, 0x43, 0xFF, 0x09, 0x1B, 0x00, 0x00,
  0x00, 0xF1, 0x02, 0x05, 0x00, 0xFE, 0xFD, 0xFF, 0x0A, 0x02,
  0x00, 0x00, 0x2E, 0x00, 0xDC, 0xCF, 0xFB, 0x0C, 0xF9, 0xE6,
  0xF6, 0x0B, 0xF1, 0x06, 0xF4, 0x1B, 0x00, 0x03, 0x09, 0x21,
  0xE0, 0xEA, 0x20, 0xFB, 0xC1, 0x42, 0xFC, 0xE0, 0x3C, 0xEC,
  0xEE, 0xFE, 0x01, 0xF8, 0x18, 0xFF, 0xFB, 0xEF, 0xE6, 0x11,
  0x00, 0x1A, 0xE8, 0x11, 0xF7, 0x0C, 0x03, 0xFF, 0x15, 0x07,
  0x08, 0x08, 0xF1, 0x01, 0xEB, 0x01, 0xFB, 0xFF, 0xE7, 0xFF,
  0xE9, 0x15, 0x02, 0x07, 0x04, 0x03, 0x07, 0xFF, 0x11, 0xFB,
  0x52, 0x0A, 0xC3, 0x15, 0xC7, 0x2E, 0x1F, 0xFB, 0x00, 0xF2,
  0xFB, 0xFB, 0x2C, 0x00, 0xFA, 0x0D, 0xF9, 0x02, 0xFB, 0x09,
  0x02, 0x10, 0xFF, 0x03, 0x03, 0x03, 0x00, 0x0A, 0x3C, 0x2C,
  0x01, 0x01, 0x10, 0xE5, 0xCD, 0x19, 0x0E, 0xEF, 0x04, 0xF7,
  0x00, 0xF9, 0xF5, 0xF7, 0xF7, 0x01, 0xFB, 0x09, 0x0E, 0xFE,
  0xFF, 0x18, 0x10, 0xFD, 0x0F, 0xFD, 0xEB, 0x03, 0x07, 0x07,
  0xFF, 0x0C, 0x0F, 0x05, 0xEE, 0xF8, 0xF8, 0x0B, 0xF8, 0x02,
  0xFA, 0xF2, 0x06, 0xF7, 0x06, 0x02, 0x08, 0xFA, 0xFF, 0x01,
  0x08, 0x02, 0xFB, 0xFF, 0x0D, 0x08, 0xFD, 0x0B, 0x0E, 0x0C,
  0x00, 0xFD, 0x05, 0x00, 0xC6, 0x23, 0xFC, 0x00, 0x02, 0xFF,
  0x21, 0x00, 0xFC, 0xED, 0x00, 0x0D, 0x00, 0x00, 0x08, 0xE1,
  0xD7, 0x06, 0x0C, 0x06, 0xFC, 0x0B, 0xF5, 0x02, 0x02, 0x03,
  0x33, 0xFF, 0x08, 0x25, 0xF7, 0x00, 0x11, 0x00, 0xEA, 0x41,
  0x0A, 0xFE, 0xFE, 0xF3, 0x00, 0xF7, 0xFE, 0xF2, 0x03, 0x07,
  0xF1, 0xF8, 0x01, 0x04, 0xF9, 0xE4, 0xCF, 0xF4, 0xD3, 0xFD,
  0x08, 0x04, 0xFD, 0x09, 0x12, 0x12, 0x13, 0xEE, 0xF4, 0xFC,
  0x15, 0x0A, 0xED, 0xF3, 0x08, 0xE2, 0xEB, 0xF7, 0x09, 0x06,
  0x0A, 0x03, 0x06, 0x01, 0x08, 0x02, 0xFF, 0x03, 0xFC, 0x01,
  0x08, 0xFF, 0x05, 0xF8, 0xFB, 0x0C, 0xEF, 0xF9, 0xC1, 0x20,
  0x11, 0x09, 0xFA, 0xFF, 0xED, 0x00, 0x28, 0x16, 0x03, 0xF9,
  0xCB, 0x00, 0xFD, 0x0F, 0xFC, 0x01, 0x0A, 0xFE, 0x07, 0x05,
  0x02, 0x07, 0x02, 0x02, 0x03, 0xFE, 0x08, 0xF6, 0x0B, 0x01,
  0x0C, 0xF5, 0x2F, 0x08, 0x0C, 0xFC, 0x0B, 0x14, 0x00, 0xFE,
  0x00, 0x11, 0xE3, 0xFB, 0x06, 0x01, 0xF0, 0x00, 0x03, 0xF5,
  0xF9, 0xFC, 0xDD, 0x03, 0x03, 0xF9, 0xF7, 0x09, 0x0C, 0x00,
  0x13, 0x06, 0xF5, 0x09, 0xF1, 0x0A, 0xFC, 0xFE, 0x0A, 0xEF,
  0x04, 0x04, 0xFF, 0xFC, 0x03, 0xF4, 0x05, 0xFF, 0x07, 0x02,
  0xFE, 0xEA, 0xFE, 0xF7, 0xF9, 0xFC, 0xF9, 0x0D, 0xFF, 0x0D,
  0x03, 0x06, 0xF8, 0xF7, 0xE1, 0xFC, 0x12, 0xF2, 0x03, 0x00,
  0xFC, 0xE8, 0x00, 0x20, 0x00, 0x00, 0x00, 0xF5, 0xF7, 0x07,
  0x00, 0x01, 0x00, 0x04, 0x03, 0x08, 0x05, 0x05, 0x1A, 0xFD,
  0xEC, 0x1D, 0xFE, 0xFB, 0x08, 0xDA, 0x05, 0x1B, 0x02, 0xFC,
  0xFE, 0xF4, 0x00, 0xFB, 0xFF, 0xD9, 0x02, 0x02, 0xF6, 0xFF,
  0x08, 0x06, 0x00, 0xE3, 0x19, 0xFE, 0x05, 0xFD, 0xFD, 0x00,
  0x0A, 0x0C, 0x03, 0x08, 0x09, 0x04, 0x04, 0x01, 0xFD, 0xFA,
  0xF3, 0x01, 0xFE, 0xF6, 0xF3, 0xFB, 0x05, 0x03, 0x07, 0x02,
  0x06, 0x06, 0x00, 0x05, 0x05, 0x02, 0x05, 0x15, 0x04, 0x04,
  0x06, 0xF8, 0xFC, 0xFF, 0xF6, 0x0C, 0xE6, 0xBD, 0x02, 0xFD,
  0x34, 0xD1, 0x13, 0xFB, 0xEA, 0x02, 0x03, 0x03, 0xFF, 0x00,
  0x00, 0x08, 0x16, 0x00, 0xFD, 0x0B, 0x09, 0x0A, 0x04, 0x01,
  0x01, 0x00, 0xF5, 0x19, 0x09, 0xF1, 0x0E, 0x14, 0x27, 0x01,
  0x09, 0x2E, 0x13, 0x01, 0x0F, 0x06, 0x00, 0xFF, 0xFC, 0x22,
  0x05, 0x0C, 0xFC, 0x12, 0xCD, 0xEE, 0x04, 0x00, 0xBB, 0xFA,
  0x01, 0x09, 0xD3, 0x11, 0xFA, 0x17, 0x08, 0x14, 0x0E, 0x03,
  0xF8, 0x02, 0x0E, 0x06, 0xFA, 0x00, 0x05, 0xCE, 0xF8, 0x06,
  0x05, 0xFD, 0x07, 0xF0, 0x10, 0xF7, 0x0C, 0xFB, 0x0D, 0xF9,
  0x14, 0xF1, 0xEC, 0xFA, 0xFC, 0x07, 0xFE, 0x02, 0x06, 0x08,
  0xF8, 0x0E, 0x0C, 0x02, 0xD2, 0x2D, 0xDC, 0x01, 0x3C, 0xED,
  0x00, 0x0B, 0xFB, 0xFF, 0xF4, 0x06, 0xF0, 0xF8, 0x02, 0xEF,
  0xF0, 0xED, 0xEF, 0x0F, 0x03, 0x03, 0x28, 0xF3, 0x09, 0xFB,
  0xF1, 0x16, 0xFE, 0xDC, 0x0B, 0x14, 0x08, 0xFC, 0xFC, 0xF7,
  0x00, 0x00, 0xFE, 0xF6, 0xF9, 0xF6, 0xFD, 0x06, 0xEF, 0x19,
  0xF8, 0xDA, 0xB2, 0x0F, 0xCA, 0xF2, 0x19, 0x05, 0xFE, 0x00,
  0x02, 0xFD, 0x05, 0xD3, 0xEF, 0xFF, 0xFB, 0xFB, 0xD2, 0xFE,
  0x02, 0xFB, 0xFE, 0xF7, 0xED, 0xF0, 0x01, 0xFC, 0xF3, 0xFC,
  0xFE, 0xF9, 0x05, 0x02, 0x02, 0xEE, 0xF6, 0xFC, 0xF9, 0x07,
  0xFF, 0x03, 0x00, 0xFA, 0x05, 0xEA, 0xF4, 0xFF, 0x23, 0xDA,
  0x1B, 0xFE, 0x21, 0xEF, 0x00, 0x0D, 0xE8, 0x00, 0x00, 0xFA,
  0xF6, 0xE8, 0x01, 0xFB, 0x04, 0xFD, 0x06, 0xFE, 0xFE, 0xFE,
  0xCF, 0x02, 0x15, 0x20, 0x09, 0x0C, 0x0C, 0xD3, 0x1F, 0x01,
  0x03, 0xF0, 0x05, 0x00, 0x00, 0xFD, 0xFF, 0x04, 0xF1, 0xFE,
  0x13, 0xF7, 0x09, 0x08, 0x05, 0xFE, 0x29, 0xF4, 0xF9, 0x04,
  0xFB, 0x0C, 0x08, 0x05, 0x01, 0x05, 0xFA, 0x00, 0x03, 0x02,
  0xF0, 0xF6, 0xF5, 0x06, 0x01, 0xF8, 0xF9, 0x02, 0xFB, 0x03,
  0x02, 0x04, 0xFF, 0x04, 0x00, 0x05, 0x00, 0xFD, 0xFB, 0xFE,
  0xFD, 0xF6, 0x02, 0x0A, 0x03, 0x01, 0x06, 0xE9, 0xB7, 0x03,
  0x00, 0xFE, 0x1A, 0xEA, 0xFE, 0xFA, 0xFA, 0xF4, 0x00, 0x20,
  0x00, 0x00, 0x01, 0xF8, 0xF7, 0xFD, 0x05, 0xF9, 0x00, 0xFA,
  0x18, 0xFF, 0xFF, 0xFF, 0x09, 0xF5, 0xEF, 0x1E, 0xFD, 0x0A,
  0x0E, 0xFE, 0x1C, 0xCA, 0xF4, 0xF5, 0xF8, 0x05, 0x00, 0xF1,
  0x00, 0xF9, 0xD9, 0xF9, 0xEB, 0xE1, 0xFE, 0x02, 0x11, 0xE8,
  0x39, 0x09, 0x3C, 0x0D, 0xFD, 0x10, 0xEF, 0x05, 0x03, 0x15,
  0x01, 0xFA, 0xF9, 0x0F, 0x1E, 0xF9, 0xFC, 0x07, 0x05, 0xFD,
  0xFB, 0x05, 0xF4, 0xF9, 0xF9, 0x08, 0xF9, 0x06, 0xF2, 0x03,
  0xF8, 0x0B, 0x08, 0x09, 0x04, 0xFD, 0xE8, 0xFC, 0x06, 0x03,
  0xFF, 0xF8, 0xC0, 0xAF, 0x07, 0x0C, 0x22, 0xD6, 0x0B, 0xFA,
  0xFE, 0x0E, 0x01, 0x03, 0x00, 0x00, 0x00, 0xEF, 0x10, 0x01,
  0xFD, 0xFC, 0xFF, 0x00, 0xF2, 0x00, 0x02, 0x02, 0xBA, 0x03,
  0xFC, 0x00, 0x05, 0x0C, 0x10, 0xD9, 0x46, 0x0C, 0x05, 0x06,
  0x00, 0xFD, 0x00, 0xFE, 0xFE, 0xFA, 0xF6, 0x0E, 0x1D, 0x0E,
  0xF8, 0x0B, 0xEC, 0x09, 0x0B, 0xE3, 0x01, 0xF5, 0xE4, 0x1A,
  0x03, 0xF7, 0xFC, 0xF7, 0xF6, 0xFA, 0x05, 0x05, 0xFB, 0x0A,
  0xED, 0xF8, 0xFE, 0xEE, 0xF6, 0x08, 0x00, 0xFE, 0xF9, 0x03,
  0x08, 0xFA, 0x05, 0xF9, 0xF4, 0x01, 0xF8, 0xF7, 0x04, 0xF3,
  0x00, 0x00, 0xF7, 0xFE, 0xFA, 0xF0, 0xFD, 0xB5, 0xF9, 0xED,
  0xFB, 0x1F, 0x17, 0x00, 0x0B, 0xFF, 0xFF, 0xF4, 0xEE, 0x01,
  0x00, 0x07, 0xFA, 0xFA, 0xF9, 0x0C, 0x07, 0x01, 0x09, 0x00,
  0x00, 0x00, 0x11, 0x0A, 0x0B, 0xDF, 0x07, 0x1B, 0x2D, 0x15,
  0xE6, 0x02, 0xFB, 0xF8, 0x06, 0x18, 0x00, 0x0D, 0x03, 0x15,
  0xFC, 0x0C, 0xF2, 0x0A, 0xF7, 0xF1, 0x05, 0x10, 0xE4, 0xF8,
  0x0C, 0x0A, 0xF9, 0x0C, 0x0B, 0xFD, 0xFA, 0xFD, 0xEF, 0xFF,
  0xF8, 0x02, 0x00, 0x0C, 0xFB, 0x08, 0xFD, 0xFD, 0x0C, 0x03,
  0x00, 0xFB, 0xFE, 0xF7, 0x09, 0xF3, 0xFE, 0xF5, 0x02, 0x01,
  0x04, 0x02, 0x00, 0x00, 0x09, 0x0B, 0x05, 0xFF, 0x09, 0x00,
  0x48, 0xF4, 0xC3, 0x01, 0xF6, 0x08, 0x01, 0x00, 0x02, 0xFB,
  0xFB, 0x09, 0x00, 0x00, 0x08, 0xF4, 0xFC, 0xDF, 0xFA, 0x00,
  0x02, 0x00, 0xFE, 0x00, 0x00, 0x00, 0x0B, 0x04, 0xED, 0x3A,
  0xFE, 0xFD, 0x0B, 0xE0, 0x1B, 0xCD, 0x0C, 0x04, 0x02, 0xFF,
  0x00, 0xF9, 0xF6, 0x0C, 0xF5, 0x03, 0x03, 0xF3, 0x02, 0xFC,
  0xF5, 0xF1, 0x22, 0x02, 0x03, 0xF6, 0x0E, 0x04, 0x0E, 0x03,
  0xFA, 0x00, 0xFF, 0x0D, 0x01, 0x05, 0xF0, 0xF3, 0xFA, 0x01,
  0xFA, 0xEE, 0xF6, 0x02, 0x01, 0xFE, 0x01, 0xFE, 0x04, 0xFF,
  0x05, 0xFF, 0x00, 0xFA, 0xF6, 0xF6, 0xEB, 0xF9, 0xFA, 0x06,
  0x00, 0x02, 0x02, 0xF5, 0xC2, 0x01, 0x09, 0x17, 0x1E, 0xC8,
  0x1F, 0xF0, 0xFA, 0xFE, 0x00, 0x01, 0x00, 0x00, 0x00, 0x02,
  0x52, 0xFB, 0xFF, 0xFF, 0x04, 0x00, 0x00, 0x00, 0x40, 0x00,
  0x00, 0x00, 0xE6, 0x0E, 0x0F, 0x41, 0x1C, 0x05, 0x04, 0xFC,
  0xEB, 0x01, 0xEF, 0x19, 0x19, 0x11, 0xF5, 0xFC, 0x05, 0x11,
  0xF9, 0xFB, 0x32, 0x3B, 0x15, 0x19, 0xE0, 0xDF, 0xF3, 0x09,
  0x17, 0x0F, 0x0C, 0x0C, 0xE1, 0x25, 0x03, 0x16, 0xDA, 0x09,
  0xEB, 0x7F, 0xF8, 0x13, 0x0E, 0xF2, 0xF3, 0x19, 0x19, 0xD6,
  0x12, 0xE8, 0xF8, 0x27, 0x0C, 0xEA, 0xF7, 0xFA, 0xFA, 0x17,
  0xE3, 0x39, 0x35, 0x0E, 0x10, 0x09, 0x9E, 0xFB, 0xFF, 0xFF,
  0x04, 0x00, 0x00, 0x00, 0x40, 0x00, 0x00, 0x00, 0xD4, 0x1D,
  0xD8, 0xBD, 0xF7, 0xE3, 0xD6, 0xF6, 0x0F, 0xCF, 0xF4, 0x11,
  0x10, 0xF5, 0x6C, 0xAD, 0x2D, 0x0E, 0xE8, 0xD8, 0x51, 0x28,
  0x4D, 0xE4, 0xE4, 0xEF, 0x97, 0xAD, 0x05, 0xF7, 0xE0, 0x00,
  0xE5, 0x7F, 0xC0, 0xB3, 0xF7, 0x9C, 0x5D, 0x2A, 0xCF, 0xE1,
  0xF5, 0xDE, 0xFE, 0xEB, 0xF0, 0xCB, 0x32, 0xBE, 0xC3, 0x5C,
  0x54, 0xBD, 0xF1, 0xD8, 0x08, 0xDB, 0xF0, 0x49, 0x32, 0x27,
  0x80, 0xE6, 0xEA, 0xFB, 0xFF, 0xFF, 0x04, 0x00, 0x00, 0x00,
  0x40, 0x03, 0x00, 0x00, 0x0A, 0x0F, 0xCF, 0x08, 0xE3, 0x1A,
  0xE2, 0xD9, 0x10, 0x0C, 0xD9, 0x10, 0x13, 0xD1, 0x0B, 0x10,
  0xD8, 0x09, 0xEA, 0xF4, 0xB7, 0x05, 0x1C, 0x10, 0xF9, 0xB5,
  0x0D, 0xFC, 0x14, 0x0A, 0x06, 0xF7, 0xC4, 0xCC, 0xFE, 0xBA,
  0xCF, 0xD4, 0x11, 0x14, 0x34, 0x03, 0xD3, 0x0C, 0x17, 0x11,
  0x11, 0x19, 0xDE, 0xF7, 0xBC, 0x10, 0x16, 0x01, 0x03, 0x03,
  0xF3, 0x14, 0xF9, 0xE7, 0x13, 0x0C, 0x0A, 0xF1, 0x17, 0x0F,
  0x06, 0x0C, 0x12, 0x1F, 0xFC, 0x0B, 0x11, 0xF4, 0x1A, 0xE3,
  0x15, 0x05, 0xC4, 0xEB, 0xDE, 0x0A, 0x11, 0xC6, 0xFC, 0x06,
  0xE3, 0x16, 0x00, 0x05, 0xF5, 0x0A, 0xD1, 0x0A, 0x1A, 0xF4,
  0x18, 0x11, 0x0F, 0xFE, 0x14, 0x09, 0xE1, 0x13, 0xD5, 0xE5,
  0xE0, 0xD0, 0x03, 0x13, 0x0E, 0xFF, 0x10, 0xFA, 0x07, 0xDA,
  0xEC, 0x0C, 0x07, 0xF0, 0x1C, 0xEE, 0x07, 0x1A, 0x11, 0x06,
  0xD7, 0x23, 0xD1, 0xBC, 0xD5, 0x0D, 0xC0, 0x17, 0x0E, 0x1A,
  0xEF, 0x0B, 0xD9, 0xE5, 0xD9, 0x19, 0xED, 0x11, 0x1F, 0xBE,
  0x0C, 0xFF, 0xB9, 0x09, 0xD4, 0xE4, 0xBB, 0x0E, 0x0B, 0x99,
  0x06, 0xE6, 0x17, 0x1A, 0xD6, 0xDF, 0xFF, 0x04, 0xAB, 0x14,
  0xDA, 0xE9, 0xDA, 0x15, 0xDF, 0x0F, 0x15, 0xDF, 0xE7, 0xE5,
  0xC4, 0xD0, 0x0A, 0xE9, 0xCB, 0x0A, 0x0F, 0xD8, 0xDE, 0x16,
  0x94, 0xDA, 0xD4, 0x0D, 0x10, 0xDD, 0xBE, 0xBB, 0xC6, 0xC0,
  0xD5, 0xD3, 0x1B, 0xF0, 0xBD, 0x03, 0x0D, 0xE5, 0x21, 0x20,
  0x11, 0xCE, 0x1F, 0xBB, 0xF3, 0x13, 0x12, 0xBD, 0x27, 0xCD,
  0x08, 0x0A, 0xC5, 0xA0, 0x02, 0xC0, 0xC6, 0x25, 0x13, 0xFF,
  0x0E, 0x06, 0xD8, 0x09, 0x12, 0xE0, 0x2C, 0xC9, 0x1A, 0xF0,
  0xCC, 0xC8, 0xCD, 0x07, 0x12, 0x07, 0xB2, 0x07, 0xED, 0xB4,
  0x03, 0x2A, 0xF9, 0xFF, 0x1A, 0x29, 0xF4, 0x16, 0xE8, 0x34,
  0xFF, 0x06, 0x03, 0x05, 0x06, 0xFE, 0xDF, 0x09, 0xEF, 0xF7,
  0xFB, 0xE6, 0x13, 0xEA, 0xF8, 0x11, 0xFB, 0xEF, 0xF6, 0xDC,
  0x08, 0xFB, 0xF3, 0x15, 0xEF, 0xFE, 0x11, 0x12, 0x17, 0xEC,
  0x12, 0xF1, 0xF1, 0x14, 0x15, 0x12, 0x02, 0xDD, 0xDB, 0xE2,
  0x07, 0x13, 0xFF, 0xE8, 0xF1, 0xFB, 0xF1, 0xF5, 0xF9, 0x09,
  0x05, 0x15, 0x00, 0x0C, 0xF1, 0x1B, 0xF2, 0x17, 0x0C, 0x15,
  0x00, 0xD4, 0x11, 0xE3, 0xCF, 0x1E, 0xCD, 0xF8, 0xE1, 0xD9,
  0xD7, 0xFE, 0x15, 0xC2, 0xAC, 0x15, 0xDC, 0xDF, 0x23, 0xC9,
  0xE1, 0xF1, 0xDC, 0xCA, 0xCB, 0x05, 0xCA, 0xCE, 0xE9, 0x07,
  0x9B, 0xD0, 0xFE, 0xFC, 0xD5, 0xF7, 0xC0, 0xEA, 0xD6, 0xBE,
  0xCA, 0xDD, 0x00, 0x03, 0xF0, 0xC4, 0xD9, 0xCE, 0x22, 0xFD,
  0xFC, 0x20, 0xD1, 0xA7, 0x81, 0xCA, 0x11, 0x0F, 0xE4, 0xEA,
  0xEB, 0xF2, 0xD9, 0xE8, 0xC5, 0xAD, 0x14, 0xE4, 0xD1, 0x1A,
  0x14, 0x0B, 0xEE, 0xD7, 0x07, 0xD4, 0xF1, 0x0A, 0xC2, 0xE7,
  0xE7, 0xDC, 0xD4, 0xDA, 0xF3, 0xE8, 0xE3, 0xE5, 0xB2, 0xF6,
  0xFB, 0xE1, 0xBD, 0xB2, 0x06, 0x1B, 0x02, 0xEF, 0xE4, 0xBF,
  0xDD, 0xE1, 0xD4, 0x12, 0x15, 0xF5, 0xD4, 0xFB, 0xF8, 0x02,
  0xC7, 0xFC, 0x08, 0xF7, 0xEA, 0xCC, 0xEC, 0xF3, 0x16, 0xC9,
  0xF4, 0xF0, 0xEF, 0xE8, 0xE4, 0x01, 0xEC, 0xD8, 0xDC, 0xE1,
  0x0D, 0xE0, 0xD4, 0xC3, 0x10, 0xB3, 0x19, 0xCB, 0xC8, 0xF2,
  0xBA, 0xE2, 0xE7, 0xD8, 0xEA, 0xD9, 0xFB, 0xDC, 0xE2, 0xAB,
  0xD4, 0xFD, 0x1D, 0x08, 0x0E, 0xCF, 0x0F, 0xE4, 0xCF, 0x0D,
  0xDB, 0x99, 0xC4, 0x1A, 0xCB, 0x0F, 0x13, 0x13, 0x1A, 0xBD,
  0x03, 0xA5, 0xDD, 0x04, 0x11, 0xFD, 0xC5, 0x11, 0xB7, 0xC4,
  0xE5, 0x00, 0x10, 0x0E, 0xB7, 0x19, 0x0E, 0x0E, 0x24, 0xAD,
  0x16, 0xD4, 0xB7, 0xB1, 0xC6, 0xD2, 0x14, 0xF3, 0x07, 0xDF,
  0x0F, 0xDD, 0xCF, 0x0A, 0xD0, 0xFE, 0xCF, 0x11, 0xE0, 0xEE,
  0xC9, 0x04, 0xBF, 0xC7, 0xD8, 0xE2, 0xD9, 0xC6, 0xE9, 0x05,
  0x0A, 0xF0, 0xEE, 0xFD, 0xEA, 0x03, 0x17, 0x05, 0xEE, 0xC5,
  0xD8, 0x00, 0xCC, 0xF6, 0x18, 0xD7, 0xED, 0x0F, 0xEA, 0x11,
  0x1A, 0xD7, 0xBB, 0xD6, 0xD1, 0xF3, 0x0C, 0x13, 0xEE, 0x16,
  0x10, 0xFA, 0x15, 0x18, 0x0F, 0x09, 0xE7, 0xE3, 0x03, 0xE1,
  0xFD, 0xE0, 0x0D, 0xF9, 0xC2, 0xF5, 0x0F, 0xD6, 0x0B, 0x0B,
  0xDE, 0xF7, 0xD6, 0x1D, 0xD3, 0x12, 0x04, 0xF4, 0xD9, 0x0C,
  0xF2, 0x06, 0x0E, 0xF8, 0xEB, 0xE8, 0x0D, 0x16, 0xFD, 0xFE,
  0xF5, 0xAC, 0xE3, 0x1A, 0xD3, 0x0E, 0xED, 0x02, 0x1D, 0x04,
  0xE8, 0x16, 0x14, 0x13, 0x09, 0x00, 0x0C, 0xEE, 0xD2, 0xDD,
  0x0F, 0xE1, 0x15, 0xF0, 0xF3, 0xD4, 0xE4, 0xED, 0xCB, 0xB4,
  0xD3, 0x10, 0x03, 0xD1, 0xD2, 0xEB, 0x0B, 0x04, 0x1B, 0xE8,
  0xE6, 0xD4, 0xE7, 0x16, 0xD6, 0xF6, 0xD1, 0xD0, 0xEB, 0xF3,
  0xF7, 0xF1, 0xCF, 0x07, 0x1F, 0xE7, 0xE0, 0xD1, 0x12, 0xE9,
  0xCE, 0xDC, 0x01, 0xF3, 0x1E, 0x19, 0xF0, 0xE7, 0xEC, 0xD3,
  0xDC, 0xD1, 0x14, 0xF8, 0xE6, 0x05, 0xD6, 0x14, 0x14, 0x0C,
  0xF0, 0xD2, 0xFF, 0x13, 0x11, 0xE2, 0x18, 0xC6, 0xF4, 0x1F,
  0xE7, 0x04, 0xF2, 0xD5, 0xFC, 0xB8, 0x13, 0xDF, 0xDB, 0x18,
  0xC0, 0x09, 0x9A, 0xF1, 0xF1, 0x08, 0x10, 0xC9, 0x0C, 0x11,
  0xD8, 0x0E, 0x12, 0x0F, 0x3F, 0x0A, 0x1E, 0x09, 0x18, 0x06,
  0xD5, 0xCA, 0xB6, 0x01, 0xE1, 0x07, 0x16, 0x09, 0xE4, 0xE2,
  0x03, 0x2C, 0x9C, 0xD1, 0x19, 0x0F, 0x18, 0x13, 0xF8, 0x17,
  0xFF, 0x16, 0xE2, 0x13, 0x0F, 0x03, 0x0A, 0x14, 0xF1, 0xC9,
  0x1A, 0xC1, 0xC1, 0xDE, 0xC9, 0xDC, 0xC4, 0xB3, 0xDC, 0xC6,
  0x10, 0xDD, 0xF5, 0xF0, 0x0B, 0x06, 0xFE, 0x01, 0xFA, 0xDB,
  0xDE, 0x0B, 0x1E, 0x12, 0xFA, 0x06, 0xFE, 0x13, 0xED, 0x0A,
  0xF4, 0x0E, 0x25, 0xD7, 0x12, 0x02, 0xF6, 0x07, 0x0E, 0x05,
  0x0F, 0x01, 0xEC, 0xF7, 0x10, 0xE9, 0xEC, 0x16, 0x11, 0x13,
  0xE3, 0x12, 0xF8, 0xF4, 0xEC, 0xEB, 0x06, 0xE1, 0x0E, 0xD6,
  0x06, 0xE2, 0x15, 0x13, 0x03, 0xF1, 0x0C, 0x0A, 0x09, 0x0B,
  0xE5, 0xFE, 0x13, 0xF6, 0xF3, 0xE6, 0x36, 0xFF, 0xFF, 0xFF,
  0x04, 0x00, 0x00, 0x00, 0x34, 0x00, 0x00, 0x00, 0x3A, 0x00,
  0x00, 0x00, 0x52, 0x00, 0x00, 0x00, 0xF6, 0xFF, 0xFF, 0xFF,
  0x5E, 0x00, 0x00, 0x00, 0x78, 0xFF, 0xFF, 0xFF, 0xCE, 0xFF,
  0xFF, 0xFF, 0xE7, 0xFF, 0xFF, 0xFF, 0xE5, 0xFF, 0xFF, 0xFF,
  0xE5, 0xFF, 0xFF, 0xFF, 0xAB, 0xFF, 0xFF, 0xFF, 0xA2, 0xFF,
  0xFF, 0xFF, 0xE4, 0xFF, 0xFF, 0xFF, 0x6B, 0xFF, 0xFF, 0xFF,
  0x88, 0xFE, 0xFF, 0xFF, 0x8C, 0xFE, 0xFF, 0xFF, 0x0F, 0x00,
  0x00, 0x00, 0x4D, 0x4C, 0x49, 0x52, 0x20, 0x43, 0x6F, 0x6E,
  0x76, 0x65, 0x72, 0x74, 0x65, 0x64, 0x2E, 0x00, 0x01, 0x00,
  0x00, 0x00, 0x14, 0x00, 0x00, 0x00, 0x00, 0x00, 0x0E, 0x00,
  0x18, 0x00, 0x14, 0x00, 0x10, 0x00, 0x0C, 0x00, 0x08, 0x00,
  0x04, 0x00, 0x0E, 0x00, 0x00, 0x00, 0x14, 0x00, 0x00, 0x00,
  0x1C, 0x00, 0x00, 0x00, 0x58, 0x01, 0x00, 0x00, 0x5C, 0x01,
  0x00, 0x00, 0x60, 0x01, 0x00, 0x00, 0x04, 0x00, 0x00, 0x00,
  0x6D, 0x61, 0x69, 0x6E, 0x00, 0x00, 0x00, 0x00, 0x05, 0x00,
  0x00, 0x00, 0x08, 0x01, 0x00, 0x00, 0xC4, 0x00, 0x00, 0x00,
  0x74, 0x00, 0x00, 0x00, 0x40, 0x00, 0x00, 0x00, 0x04, 0x00,
  0x00, 0x00, 0x5A, 0xFF, 0xFF, 0xFF, 0x1C, 0x00, 0x00, 0x00,
  0x00, 0x00, 0x00, 0x09, 0x1C, 0x00, 0x00, 0x00, 0x20, 0x00,
  0x00, 0x00, 0x03, 0x00, 0x00, 0x00, 0x00, 0x00, 0x06, 0x00,
  0x08, 0x00, 0x04, 0x00, 0x06, 0x00, 0x00, 0x00, 0x00, 0x00,
  0x80, 0x3F, 0x01, 0x00, 0x00, 0x00, 0x0A, 0x00, 0x00, 0x00,
  0x01, 0x00, 0x00, 0x00, 0x09, 0x00, 0x00, 0x00, 0x52, 0xFF,
  0xFF, 0xFF, 0x10, 0x00, 0x00, 0x00, 0x00, 0x00, 0x00, 0x08,
  0x0C, 0x00, 0x00, 0x00, 0x10, 0x00, 0x00, 0x00, 0x44, 0xFF,
  0xFF, 0xFF, 0x01, 0x00, 0x00, 0x00, 0x09, 0x00, 0x00, 0x00,
  0x03, 0x00, 0x00, 0x00, 0x08, 0x00, 0x00, 0x00, 0x02, 0x00,
  0x00, 0x00, 0x01, 0x00, 0x00, 0x00, 0xC2, 0xFF, 0xFF, 0xFF,
  0x1C, 0x00, 0x00, 0x00, 0x00, 0x00, 0x00, 0x0B, 0x1C, 0x00,
  0x00, 0x00, 0x20, 0x00, 0x00, 0x00, 0x02, 0x00, 0x00, 0x00,
  0x00, 0x00, 0x06, 0x00, 0x08, 0x00, 0x07, 0x00, 0x06, 0x00,
  0x00, 0x00, 0x00, 0x00, 0x00, 0x01, 0x01, 0x00, 0x00, 0x00,
  0x08, 0x00, 0x00, 0x00, 0x02, 0x00, 0x00, 0x00, 0x07, 0x00,
  0x00, 0x00, 0x03, 0x00, 0x00, 0x00, 0x00, 0x00, 0x0E, 0x00,
  0x18, 0x00, 0x14, 0x00, 0x10, 0x00, 0x0C, 0x00, 0x0B, 0x00,
  0x04, 0x00, 0x0E, 0x00, 0x00, 0x00, 0x14, 0x00, 0x00, 0x00,
  0x00, 0x00, 0x00, 0x15, 0x10, 0x00, 0x00, 0x00, 0x14, 0x00,
  0x00, 0x00, 0x01, 0x00, 0x00, 0x00, 0xC4, 0xFF, 0xFF, 0xFF,
  0x01, 0x00, 0x00, 0x00, 0x07, 0x00, 0x00, 0x00, 0x02, 0x00,
  0x00, 0x00, 0x06, 0x00, 0x00, 0x00, 0x04, 0x00, 0x00, 0x00,
  0x00, 0x00, 0x0E, 0x00, 0x14, 0x00, 0x00, 0x00, 0x10, 0x00,
  0x0C, 0x00, 0x0B, 0x00, 0x04, 0x00, 0x0E, 0x00, 0x00, 0x00,
  0x14, 0x00, 0x00, 0x00, 0x00, 0x00, 0x00, 0x08, 0x10, 0x00,
  0x00, 0x00, 0x14, 0x00, 0x00, 0x00, 0x04, 0x00, 0x04, 0x00,
  0x04, 0x00, 0x00, 0x00, 0x01, 0x00, 0x00, 0x00, 0x06, 0x00,
  0x00, 0x00, 0x03, 0x00, 0x00, 0x00, 0x00, 0x00, 0x00, 0x00,
  0x05, 0x00, 0x00, 0x00, 0xFF, 0xFF, 0xFF, 0xFF, 0x01, 0x00,
  0x00, 0x00, 0x0A, 0x00, 0x00, 0x00, 0x01, 0x00, 0x00, 0x00,
  0x00, 0x00, 0x00, 0x00, 0x0B, 0x00, 0x00, 0x00, 0xF0, 0x05,
  0x00, 0x00, 0x58, 0x05, 0x00, 0x00, 0x8C, 0x04, 0x00, 0x00,
  0x10, 0x04, 0x00, 0x00, 0x94, 0x03, 0x00, 0x00, 0xE8, 0x02,
  0x00, 0x00, 0x64, 0x02, 0x00, 0x00, 0xD0, 0x01, 0x00, 0x00,
  0x24, 0x01, 0x00, 0x00, 0x80, 0x00, 0x00, 0x00, 0x04, 0x00,
  0x00, 0x00, 0x52, 0xFA, 0xFF, 0xFF, 0x00, 0x00, 0x00, 0x01,
  0x18, 0x00, 0x00, 0x00, 0x20, 0x00, 0x00, 0x00, 0x3C, 0x00,
  0x00, 0x00, 0x0B, 0x00, 0x00, 0x00, 0x00, 0x00, 0x00, 0x09,
  0x50, 0x00, 0x00, 0x00, 0x02, 0x00, 0x00, 0x00, 0xFF, 0xFF,
  0xFF, 0xFF, 0x0D, 0x00, 0x00, 0x00, 0x3C, 0xFA, 0xFF, 0xFF,
  0x08, 0x00, 0x00, 0x00, 0x10, 0x00, 0x00, 0x00, 0x01, 0x00,
  0x00, 0x00, 0x80, 0xFF, 0xFF, 0xFF, 0xFF, 0xFF, 0xFF, 0xFF,
  0x01, 0x00, 0x00, 0x00, 0x00, 0x00, 0x80, 0x3B, 0x19, 0x00,
  0x00, 0x00, 0x53, 0x74, 0x61, 0x74, 0x65, 0x66, 0x75, 0x6C,
  0x50, 0x61, 0x72, 0x74, 0x69, 0x74, 0x69, 0x6F, 0x6E, 0x65,
  0x64, 0x43, 0x61, 0x6C, 0x6C, 0x3A, 0x30, 0x00, 0x00, 0x00,
  0x02, 0x00, 0x00, 0x00, 0x01, 0x00, 0x00, 0x00, 0x0D, 0x00,
  0x00, 0x00, 0xCA, 0xFA, 0xFF, 0xFF, 0x00, 0x00, 0x00, 0x01,
  0x18, 0x00, 0x00, 0x00, 0x20, 0x00, 0x00, 0x00, 0x3C, 0x00,
  0x00, 0x00, 0x0A, 0x00, 0x00, 0x00, 0x00, 0x00, 0x00, 0x09,
  0x78, 0x00, 0x00, 0x00, 0x02, 0x00, 0x00, 0x00, 0xFF, 0xFF,
  0xFF, 0xFF, 0x0D, 0x00, 0x00, 0x00, 0xB4, 0xFA, 0xFF, 0xFF,
  0x08, 0x00, 0x00, 0x00, 0x10, 0x00, 0x00, 0x00, 0x01, 0x00,
  0x00, 0x00, 0x3A, 0x00, 0x00, 0x00, 0x00, 0x00, 0x00, 0x00,
  0x01, 0x00, 0x00, 0x00, 0x93, 0xD4, 0xE1, 0x3F, 0x40, 0x00,
  0x00, 0x00, 0x73, 0x65, 0x71, 0x75, 0x65, 0x6E, 0x74, 0x69,
  0x61, 0x6C, 0x2F, 0x71, 0x75, 0x61, 0x6E, 0x74, 0x5F, 0x64,
  0x65, 0x6E, 0x73, 0x65, 0x5F, 0x31, 0x2F, 0x4D, 0x61, 0x74,
  0x4D, 0x75, 0x6C, 0x3B, 0x73, 0x65, 0x71, 0x75, 0x65, 0x6E,
  0x74, 0x69, 0x61, 0x6C, 0x2F, 0x71, 0x75, 0x61, 0x6E, 0x74,
  0x5F, 0x64, 0x65, 0x6E, 0x73, 0x65, 0x5F, 0x31, 0x2F, 0x42,
  0x69, 0x61, 0x73, 0x41, 0x64, 0x64, 0x00, 0x00, 0x00, 0x00,
  0x02, 0x00, 0x00, 0x00, 0x01, 0x00, 0x00, 0x00, 0x0D, 0x00,
  0x00, 0x00, 0x6A, 0xFB, 0xFF, 0xFF, 0x00, 0x00, 0x00, 0x01,
  0x18, 0x00, 0x00, 0x00, 0x20, 0x00, 0x00, 0x00, 0x40, 0x00,
  0x00, 0x00, 0x09, 0x00, 0x00, 0x00, 0x00, 0x00, 0x00, 0x09,
  0x80, 0x00, 0x00, 0x00, 0x02, 0x00, 0x00, 0x00, 0xFF, 0xFF,
  0xFF, 0xFF, 0x40, 0x00, 0x00, 0x00, 0x54, 0xFB, 0xFF, 0xFF,
  0x08, 0x00, 0x00, 0x00, 0x14, 0x00, 0x00, 0x00, 0x01, 0x00,
  0x00, 0x00, 0x80, 0xFF, 0xFF, 0xFF, 0xFF, 0xFF, 0xFF, 0xFF,
  0x00, 0x00, 0x00, 0x00, 0x01, 0x00, 0x00, 0x00, 0x95, 0xC2,
  0xD9, 0x3E, 0x44, 0x00, 0x00, 0x00, 0x73, 0x65, 0x71, 0x75,
  0x65, 0x6E, 0x74, 0x69, 0x61, 0x6C, 0x2F, 0x72, 0x65, 0x5F,
  0x6C, 0x75, 0x2F, 0x52, 0x65, 0x6C, 0x75, 0x3B, 0x73, 0x65,
  0x71, 0x75, 0x65, 0x6E, 0x74, 0x69, 0x61, 0x6C, 0x2F, 0x62,
  0x61, 0x74, 0x63, 0x68, 0x5F, 0x6E, 0x6F, 0x72, 0x6D, 0x61,
  0x6C, 0x69, 0x7A, 0x61, 0x74, 0x69, 0x6F, 0x6E, 0x2F, 0x62,
  0x61, 0x74, 0x63, 0x68, 0x6E, 0x6F, 0x72, 0x6D, 0x2F, 0x61,
  0x64, 0x64, 0x5F, 0x31, 0x00, 0x00, 0x00, 0x00, 0x02, 0x00,
  0x00, 0x00, 0x01, 0x00, 0x00, 0x00, 0x40, 0x00, 0x00, 0x00,
  0x12, 0xFC, 0xFF, 0xFF, 0x00, 0x00, 0x00, 0x01, 0x18, 0x00,
  0x00, 0x00, 0x20, 0x00, 0x00, 0x00, 0x40, 0x00, 0x00, 0x00,
  0x08, 0x00, 0x00, 0x00, 0x00, 0x00, 0x00, 0x09, 0x68, 0x00,
  0x00, 0x00, 0x02, 0x00, 0x00, 0x00, 0xFF, 0xFF, 0xFF, 0xFF,
  0x40, 0x00, 0x00, 0x00, 0xFC, 0xFB, 0xFF, 0xFF, 0x08, 0x00,
  0x00, 0x00, 0x14, 0x00, 0x00, 0x00, 0x01, 0x00, 0x00, 0x00,
  0x00, 0x00, 0x00, 0x00, 0x00, 0x00, 0x00, 0x00, 0x00, 0x00,
  0x00, 0x00, 0x01, 0x00, 0x00, 0x00, 0xD5, 0xAB, 0x5A, 0x3F,
  0x2E, 0x00, 0x00, 0x00, 0x73, 0x65, 0x71, 0x75, 0x65, 0x6E,
  0x74, 0x69, 0x61, 0x6C, 0x2F, 0x62, 0x61, 0x74, 0x63, 0x68,
  0x5F, 0x6E, 0x6F, 0x72, 0x6D, 0x61, 0x6C, 0x69, 0x7A, 0x61,
  0x74, 0x69, 0x6F, 0x6E, 0x2F, 0x62, 0x61, 0x74, 0x63, 0x68,
  0x6E, 0x6F, 0x72, 0x6D, 0x2F, 0x6D, 0x75, 0x6C, 0x5F, 0x31,
  0x00, 0x00, 0x02, 0x00, 0x00, 0x00, 0x01, 0x00, 0x00, 0x00,
  0x40, 0x00, 0x00, 0x00, 0xA2, 0xFC, 0xFF, 0xFF, 0x00, 0x00,
  0x00, 0x01, 0x18, 0x00, 0x00, 0x00, 0x20, 0x00, 0x00, 0x00,
  0x40, 0x00, 0x00, 0x00, 0x07, 0x00, 0x00, 0x00, 0x00, 0x00,
  0x00, 0x09, 0x58, 0x00, 0x00, 0x00, 0x02, 0x00, 0x00, 0x00,
  0xFF, 0xFF, 0xFF, 0xFF, 0x40, 0x00, 0x00, 0x00, 0x8C, 0xFC,
  0xFF, 0xFF, 0x08, 0x00, 0x00, 0x00, 0x14, 0x00, 0x00, 0x00,
  0x01, 0x00, 0x00, 0x00, 0x19, 0x00, 0x00, 0x00, 0x00, 0x00,
  0x00, 0x00, 0x00, 0x00, 0x00, 0x00, 0x01, 0x00, 0x00, 0x00,
  0xDF, 0x8F, 0x3F, 0x3E, 0x1E, 0x00, 0x00, 0x00, 0x73, 0x65,
  0x71, 0x75, 0x65, 0x6E, 0x74, 0x69, 0x61, 0x6C, 0x2F, 0x71,
  0x75, 0x61, 0x6E, 0x74, 0x5F, 0x64, 0x65, 0x6E, 0x73, 0x65,
  0x2F, 0x4D, 0x61, 0x74, 0x4D, 0x75, 0x6C, 0x31, 0x00, 0x00,
  0x02, 0x00, 0x00, 0x00, 0x01, 0x00, 0x00, 0x00, 0x40, 0x00,
  0x00, 0x00, 0xB6, 0xFD, 0xFF, 0xFF, 0x00, 0x00, 0x00, 0x01,
  0x14, 0x00, 0x00, 0x00, 0x30, 0x00, 0x00, 0x00, 0x06, 0x00,
  0x00, 0x00, 0x00, 0x00, 0x00, 0x09, 0x84, 0x00, 0x00, 0x00,
  0xFC, 0xFC, 0xFF, 0xFF, 0x08, 0x00, 0x00, 0x00, 0x10, 0x00,
  0x00, 0x00, 0x01, 0x00, 0x00, 0x00, 0x00, 0x00, 0x00, 0x00,
  0x00, 0x00, 0x00, 0x00, 0x01, 0x00, 0x00, 0x00, 0x43, 0x22,
  0x9B, 0x3B, 0x5B, 0x00, 0x00, 0x00, 0x73, 0x65, 0x71, 0x75,
  0x65, 0x6E, 0x74, 0x69, 0x61, 0x6C, 0x2F, 0x71, 0x75, 0x61,
  0x6E, 0x74, 0x5F, 0x64, 0x65, 0x6E, 0x73, 0x65, 0x2F, 0x4D,
  0x61, 0x74, 0x4D, 0x75, 0x6C, 0x3B, 0x73, 0x65, 0x71, 0x75,
  0x65, 0x6E, 0x74, 0x69, 0x61, 0x6C, 0x2F, 0x71, 0x75, 0x61,
  0x6E, 0x74, 0x5F, 0x64, 0x65, 0x6E, 0x73, 0x65, 0x2F, 0x4C,
  0x61, 0x73, 0x74, 0x56, 0x61, 0x6C, 0x75, 0x65, 0x51, 0x75,
  0x61, 0x6E, 0x74, 0x2F, 0x46, 0x61, 0x6B, 0x65, 0x51, 0x75,
  0x61, 0x6E, 0x74, 0x57, 0x69, 0x74, 0x68, 0x4D, 0x69, 0x6E,
  0x4D, 0x61, 0x78, 0x56, 0x61, 0x72, 0x73, 0x00, 0x02, 0x00,
  0x00, 0x00, 0x40, 0x00, 0x00, 0x00, 0x5E, 0x00, 0x00, 0x00,
  0x5E, 0xFE, 0xFF, 0xFF, 0x00, 0x00, 0x00, 0x01, 0x14, 0x00,
  0x00, 0x00, 0x30, 0x00, 0x00, 0x00, 0x05, 0x00, 0x00, 0x00,
  0x00, 0x00, 0x00, 0x09, 0x58, 0x00, 0x00, 0x00, 0xA4, 0xFD,
  0xFF, 0xFF, 0x08, 0x00, 0x00, 0x00, 0x10, 0x00, 0x00, 0x00,
  0x01, 0x00, 0x00, 0x00, 0x80, 0xFF, 0xFF, 0xFF, 0xFF, 0xFF,
  0xFF, 0xFF, 0x01, 0x00, 0x00, 0x00, 0x79, 0xE6, 0xB4, 0x3C,
  0x2C, 0x00, 0x00, 0x00, 0x73, 0x65, 0x71, 0x75, 0x65, 0x6E,
  0x74, 0x69, 0x61, 0x6C, 0x2F, 0x62, 0x61, 0x74, 0x63, 0x68,
  0x5F, 0x6E, 0x6F, 0x72, 0x6D, 0x61, 0x6C, 0x69, 0x7A, 0x61,
  0x74, 0x69, 0x6F, 0x6E, 0x2F, 0x62, 0x61, 0x74, 0x63, 0x68,
  0x6E, 0x6F, 0x72, 0x6D, 0x2F, 0x6D, 0x75, 0x6C, 0x00, 0x00,
  0x00, 0x00, 0x01, 0x00, 0x00, 0x00, 0x40, 0x00, 0x00, 0x00,
  0xD6, 0xFE, 0xFF, 0xFF, 0x00, 0x00, 0x00, 0x01, 0x14, 0x00,
  0x00, 0x00, 0x30, 0x00, 0x00, 0x00, 0x04, 0x00, 0x00, 0x00,
  0x00, 0x00, 0x00, 0x09, 0x58, 0x00, 0x00, 0x00, 0x1C, 0xFE,
  0xFF, 0xFF, 0x08, 0x00, 0x00, 0x00, 0x10, 0x00, 0x00, 0x00,
  0x01, 0x00, 0x00, 0x00, 0xDE, 0xFF, 0xFF, 0xFF, 0xFF, 0xFF,
  0xFF, 0xFF, 0x01, 0x00, 0x00, 0x00, 0xE2, 0xA3, 0x57, 0x3C,
  0x2C, 0x00, 0x00, 0x00, 0x73, 0x65, 0x71, 0x75, 0x65, 0x6E,
  0x74, 0x69, 0x61, 0x6C, 0x2F, 0x62, 0x61, 0x74, 0x63, 0x68,
  0x5F, 0x6E, 0x6F, 0x72, 0x6D, 0x61, 0x6C, 0x69, 0x7A, 0x61,
  0x74, 0x69, 0x6F, 0x6E, 0x2F, 0x62, 0x61, 0x74, 0x63, 0x68,
  0x6E, 0x6F, 0x72, 0x6D, 0x2F, 0x73, 0x75, 0x62, 0x00, 0x00,
  0x00, 0x00, 0x01, 0x00, 0x00, 0x00, 0x40, 0x00, 0x00, 0x00,
  0x4E, 0xFF, 0xFF, 0xFF, 0x00, 0x00, 0x00, 0x01, 0x14, 0x00,
  0x00, 0x00, 0x34, 0x00, 0x00, 0x00, 0x03, 0x00, 0x00, 0x00,
  0x00, 0x00, 0x00, 0x09, 0x8C, 0x00, 0x00, 0x00, 0x94, 0xFE,
  0xFF, 0xFF, 0x08, 0x00, 0x00, 0x00, 0x14, 0x00, 0x00, 0x00,
  0x01, 0x00, 0x00, 0x00, 0x00, 0x00, 0x00, 0x00, 0x00, 0x00,
  0x00, 0x00, 0x00, 0x00, 0x00, 0x00, 0x01, 0x00, 0x00, 0x00,
  0x23, 0xB6, 0xC0, 0x3C, 0x5F, 0x00, 0x00, 0x00, 0x73, 0x65,
  0x71, 0x75, 0x65, 0x6E, 0x74, 0x69, 0x61, 0x6C, 0x2F, 0x71,
  0x75, 0x61, 0x6E, 0x74, 0x5F, 0x64, 0x65, 0x6E, 0x73, 0x65,
  0x5F, 0x31, 0x2F, 0x4D, 0x61, 0x74, 0x4D, 0x75, 0x6C, 0x3B,
  0x73, 0x65, 0x71, 0x75, 0x65, 0x6E, 0x74, 0x69, 0x61, 0x6C,
  0x2F, 0x71, 0x75, 0x61, 0x6E, 0x74, 0x5F, 0x64, 0x65, 0x6E,
  0x73, 0x65, 0x5F, 0x31, 0x2F, 0x4C, 0x61, 0x73, 0x74, 0x56,
  0x61, 0x6C, 0x75, 0x65, 0x51, 0x75, 0x61, 0x6E, 0x74, 0x2F,
  0x46, 0x61, 0x6B, 0x65, 0x51, 0x75, 0x61, 0x6E, 0x74, 0x57,
  0x69, 0x74, 0x68, 0x4D, 0x69, 0x6E, 0x4D, 0x61, 0x78, 0x56,
  0x61, 0x72, 0x73, 0x00, 0x02, 0x00, 0x00, 0x00, 0x0D, 0x00,
  0x00, 0x00, 0x40, 0x00, 0x00, 0x00, 0x00, 0x00, 0x16, 0x00,
  0x1C, 0x00, 0x18, 0x00, 0x17, 0x00, 0x10, 0x00, 0x0C, 0x00,
  0x08, 0x00, 0x00, 0x00, 0x00, 0x00, 0x00, 0x00, 0x07, 0x00,
  0x16, 0x00, 0x00, 0x00, 0x00, 0x00, 0x00, 0x01, 0x14, 0x00,
  0x00, 0x00, 0x34, 0x00, 0x00, 0x00, 0x02, 0x00, 0x00, 0x00,
  0x00, 0x00, 0x00, 0x02, 0x5C, 0x00, 0x00, 0x00, 0x5C, 0xFF,
  0xFF, 0xFF, 0x08, 0x00, 0x00, 0x00, 0x14, 0x00, 0x00, 0x00,
  0x01, 0x00, 0x00, 0x00, 0x00, 0x00, 0x00, 0x00, 0x00, 0x00,
  0x00, 0x00, 0x00, 0x00, 0x00, 0x00, 0x01, 0x00, 0x00, 0x00,
  0xDE, 0xEC, 0x23, 0x3C, 0x2F, 0x00, 0x00, 0x00, 0x73, 0x65,
  0x71, 0x75, 0x65, 0x6E, 0x74, 0x69, 0x61, 0x6C, 0x2F, 0x71,
  0x75, 0x61, 0x6E, 0x74, 0x5F, 0x64, 0x65, 0x6E, 0x73, 0x65,
  0x5F, 0x31, 0x2F, 0x42, 0x69, 0x61, 0x73, 0x41, 0x64, 0x64,
  0x2F, 0x52, 0x65, 0x61, 0x64, 0x56, 0x61, 0x72, 0x69, 0x61,
  0x62, 0x6C, 0x65, 0x4F, 0x70, 0x00, 0x01, 0x00, 0x00, 0x00,
  0x0D, 0x00, 0x00, 0x00, 0x00, 0x00, 0x16, 0x00, 0x20, 0x00,
  0x1C, 0x00, 0x1B, 0x00, 0x14, 0x00, 0x10, 0x00, 0x0C, 0x00,
  0x00, 0x00, 0x00, 0x00, 0x08, 0x00, 0x07, 0x00, 0x16, 0x00,
  0x00, 0x00, 0x00, 0x00, 0x00, 0x01, 0x18, 0x00, 0x00, 0x00,
  0x2C, 0x00, 0x00, 0x00, 0x48, 0x00, 0x00, 0x00, 0x01, 0x00,
  0x00, 0x00, 0x00, 0x00, 0x00, 0x09, 0x5C, 0x00, 0x00, 0x00,
  0x02, 0x00, 0x00, 0x00, 0xFF, 0xFF, 0xFF, 0xFF, 0x5E, 0x00,
  0x00, 0x00, 0x0C, 0x00, 0x0C, 0x00, 0x00, 0x00, 0x00, 0x00,
  0x08, 0x00, 0x04, 0x00, 0x0C, 0x00, 0x00, 0x00, 0x08, 0x00,
  0x00, 0x00, 0x10, 0x00, 0x00, 0x00, 0x01, 0x00, 0x00, 0x00,
  0x83, 0xFF, 0xFF, 0xFF, 0xFF, 0xFF, 0xFF, 0xFF, 0x01, 0x00,
  0x00, 0x00, 0x9A, 0xCF, 0xA2, 0x3F, 0x19, 0x00, 0x00, 0x00,
  0x73, 0x65, 0x72, 0x76, 0x69, 0x6E, 0x67, 0x5F, 0x64, 0x65,
  0x66, 0x61, 0x75, 0x6C, 0x74, 0x5F, 0x69, 0x6E, 0x70, 0x75,
  0x74, 0x5F, 0x31, 0x3A, 0x30, 0x00, 0x00, 0x00, 0x02, 0x00,
  0x00, 0x00, 0x01, 0x00, 0x00, 0x00, 0x5E, 0x00, 0x00, 0x00,
  0x04, 0x00, 0x00, 0x00, 0x58, 0x00, 0x00, 0x00, 0x38, 0x00,
  0x00, 0x00, 0x2C, 0x00, 0x00, 0x00, 0x10, 0x00, 0x00, 0x00,
  0x0C, 0x00, 0x0E, 0x00, 0x0D, 0x00, 0x00, 0x00, 0x08, 0x00,
  0x04, 0x00, 0x0C, 0x00, 0x00, 0x00, 0x19, 0x00, 0x00, 0x00,
  0x02, 0x00, 0x00, 0x00, 0x00, 0x19, 0x0A, 0x00, 0x08, 0x00,
  0x00, 0x00, 0x00, 0x00, 0x04, 0x00, 0x0A, 0x00, 0x00, 0x00,
  0x02, 0x00, 0x00, 0x00, 0xF0, 0xFF, 0xFF, 0xFF, 0x12, 0x00,
  0x00, 0x00, 0x02, 0x00, 0x00, 0x00, 0x00, 0x00, 0x00, 0x12,
  0x0C, 0x00, 0x10, 0x00, 0x0F, 0x00, 0x00, 0x00, 0x08, 0x00,
  0x04, 0x00, 0x0C, 0x00, 0x00, 0x00, 0x09, 0x00, 0x00, 0x00,
  0x04, 0x00, 0x00, 0x00, 0x00, 0x00, 0x00, 0x09
};
unsigned int model_tflite_len = 9768;